{
  "version": "1.0",
  "truncation": null,
  "padding": null,
  "added_tokens": [
    {
      "id": 0,
      "content": " ",
      "single_word": false,
      "lstrip": false,
      "rstrip": false,
      "normalized": false,
      "special": true
    },
    {
      "id": 1,
      "content": "<PAD>",
      "single_word": false,
      "lstrip": false,
      "rstrip": false,
      "normalized": false,
      "special": true
    },
    {
      "id": 2,
      "content": "<UNK>",
      "single_word": false,
      "lstrip": false,
      "rstrip": false,
      "normalized": false,
      "special": true
    },
    {
      "id": 3,
      "content": "<CLS>",
      "single_word": false,
      "lstrip": false,
      "rstrip": false,
      "normalized": false,
      "special": true
    },
    {
      "id": 4,
      "content": "<SEP>",
      "single_word": false,
      "lstrip": false,
      "rstrip": false,
      "normalized": false,
      "special": true
    },
    {
      "id": 5,
      "content": "<MASK>",
      "single_word": false,
      "lstrip": false,
      "rstrip": false,
      "normalized": false,
      "special": true
    },
    {
      "id": 6,
      "content": "<TRANS>",
      "single_word": false,
      "lstrip": false,
      "rstrip": false,
      "normalized": false,
      "special": true
    },
    {
      "id": 7,
      "content": "<S>",
      "single_word": false,
      "lstrip": false,
      "rstrip": false,
      "normalized": false,
      "special": true
    },
    {
      "id": 8,
      "content": "</S>",
      "single_word": false,
      "lstrip": false,
      "rstrip": false,
      "normalized": false,
      "special": true
    }
  ],
  "normalizer": null,
  "pre_tokenizer": {
    "type": "Whitespace"
  },
  "post_processor": null,
  "decoder": null,
  "model": {
    "type": "BPE",
    "dropout": null,
    "unk_token": "[UNK]",
    "continuing_subword_prefix": null,
    "end_of_word_suffix": null,
    "fuse_unk": false,
    "byte_fallback": false,
    "ignore_merges": false,
    "vocab": {
      " ": 0,
      "<PAD>": 1,
      "<UNK>": 2,
      "<CLS>": 3,
      "<SEP>": 4,
      "<MASK>": 5,
      "<TRANS>": 6,
      "<S>": 7,
      "</S>": 8,
      "!": 9,
      "\"": 10,
      "%": 11,
      "&": 12,
      "'": 13,
      "(": 14,
      ")": 15,
      "*": 16,
      "+": 17,
      ",": 18,
      "-": 19,
      ".": 20,
      "/": 21,
      "0": 22,
      "1": 23,
      "2": 24,
      "3": 25,
      "4": 26,
      "5": 27,
      "6": 28,
      "7": 29,
      "8": 30,
      "9": 31,
      ":": 32,
      ";": 33,
      "<": 34,
      "=": 35,
      "?": 36,
      "@": 37,
      "A": 38,
      "B": 39,
      "C": 40,
      "D": 41,
      "E": 42,
      "F": 43,
      "G": 44,
      "H": 45,
      "I": 46,
      "J": 47,
      "K": 48,
      "L": 49,
      "M": 50,
      "N": 51,
      "O": 52,
      "P": 53,
      "Q": 54,
      "R": 55,
      "S": 56,
      "T": 57,
      "U": 58,
      "V": 59,
      "W": 60,
      "X": 61,
      "Y": 62,
      "Z": 63,
      "[": 64,
      "]": 65,
      "_": 66,
      "a": 67,
      "b": 68,
      "c": 69,
      "d": 70,
      "e": 71,
      "f": 72,
      "g": 73,
      "h": 74,
      "i": 75,
      "j": 76,
      "k": 77,
      "l": 78,
      "m": 79,
      "n": 80,
      "o": 81,
      "p": 82,
      "q": 83,
      "r": 84,
      "s": 85,
      "t": 86,
      "u": 87,
      "v": 88,
      "w": 89,
      "x": 90,
      "y": 91,
      "z": 92,
      "°": 93,
      "±": 94,
      "²": 95,
      "³": 96,
      "º": 97,
      "Å": 98,
      "Ð": 99,
      "Ó": 100,
      "Ö": 101,
      "×": 102,
      "Ü": 103,
      "à": 104,
      "á": 105,
      "â": 106,
      "ã": 107,
      "ä": 108,
      "ç": 109,
      "è": 110,
      "é": 111,
      "ê": 112,
      "ë": 113,
      "í": 114,
      "ï": 115,
      "ñ": 116,
      "ò": 117,
      "ó": 118,
      "ô": 119,
      "ö": 120,
      "ú": 121,
      "û": 122,
      "ü": 123,
      "ý": 124,
      "ă": 125,
      "ć": 126,
      "ĉ": 127,
      "Č": 128,
      "č": 129,
      "Đ": 130,
      "đ": 131,
      "ė": 132,
      "ę": 133,
      "ě": 134,
      "ğ": 135,
      "ī": 136,
      "ı": 137,
      "ķ": 138,
      "ľ": 139,
      "Ł": 140,
      "ł": 141,
      "ń": 142,
      "ō": 143,
      "Ő": 144,
      "ő": 145,
      "œ": 146,
      "ř": 147,
      "Ś": 148,
      "ś": 149,
      "ş": 150,
      "Š": 151,
      "š": 152,
      "ţ": 153,
      "ź": 154,
      "ž": 155,
      "ǐ": 156,
      "ș": 157,
      "Α": 158,
      "Β": 159,
      "Ε": 160,
      "Ι": 161,
      "Μ": 162,
      "Ν": 163,
      "Ο": 164,
      "Τ": 165,
      "έ": 166,
      "ί": 167,
      "α": 168,
      "δ": 169,
      "ε": 170,
      "η": 171,
      "ι": 172,
      "κ": 173,
      "λ": 174,
      "μ": 175,
      "ν": 176,
      "ο": 177,
      "ρ": 178,
      "ς": 179,
      "σ": 180,
      "τ": 181,
      "υ": 182,
      "φ": 183,
      "ό": 184,
      "ώ": 185,
      "І": 186,
      "А": 187,
      "Б": 188,
      "В": 189,
      "Г": 190,
      "Д": 191,
      "Е": 192,
      "Ж": 193,
      "З": 194,
      "И": 195,
      "Й": 196,
      "К": 197,
      "Л": 198,
      "М": 199,
      "Н": 200,
      "О": 201,
      "П": 202,
      "Р": 203,
      "С": 204,
      "Т": 205,
      "У": 206,
      "Ф": 207,
      "Х": 208,
      "Ц": 209,
      "Ч": 210,
      "Ш": 211,
      "Щ": 212,
      "Ъ": 213,
      "Ю": 214,
      "Я": 215,
      "а": 216,
      "б": 217,
      "в": 218,
      "г": 219,
      "д": 220,
      "е": 221,
      "ж": 222,
      "з": 223,
      "и": 224,
      "й": 225,
      "к": 226,
      "л": 227,
      "м": 228,
      "н": 229,
      "о": 230,
      "п": 231,
      "р": 232,
      "с": 233,
      "т": 234,
      "у": 235,
      "ф": 236,
      "х": 237,
      "ц": 238,
      "ч": 239,
      "ш": 240,
      "щ": 241,
      "ъ": 242,
      "ь": 243,
      "ю": 244,
      "я": 245,
      "ѝ": 246,
      "​": 247,
      "”": 248,
      "•": 249,
      "€": 250,
      "№": 251,
      "≤": 252,
      "th": 253,
      "на": 254,
      "in": 255,
      "the": 256,
      "re": 257,
      "on": 258,
      "ни": 259,
      "то": 260,
      "an": 261,
      "та": 262,
      "ва": 263,
      "ра": 264,
      "те": 265,
      "at": 266,
      "но": 267,
      "да": 268,
      "en": 269,
      "ре": 270,
      "is": 271,
      "ст": 272,
      "по": 273,
      "за": 274,
      "er": 275,
      "не": 276,
      "or": 277,
      "al": 278,
      "ion": 279,
      "ко": 280,
      "to": 281,
      "es": 282,
      "of": 283,
      "ка": 284,
      "ро": 285,
      "it": 286,
      "ou": 287,
      "and": 288,
      "ме": 289,
      "ри": 290,
      "от": 291,
      "ro": 292,
      "ed": 293,
      "се": 294,
      "ing": 295,
      "ar": 296,
      "ите": 297,
      "че": 298,
      "ия": 299,
      "ent": 300,
      "ic": 301,
      "st": 302,
      "ле": 303,
      "ве": 304,
      "ли": 305,
      "ла": 306,
      "as": 307,
      "во": 308,
      "пре": 309,
      "le": 310,
      "съ": 311,
      "ти": 312,
      "ve": 313,
      "де": 314,
      "om": 315,
      "ма": 316,
      "ви": 317,
      "об": 318,
      "be": 319,
      "pe": 320,
      "ct": 321,
      "си": 322,
      "го": 323,
      "мо": 324,
      "that": 325,
      "про": 326,
      "въ": 327,
      "ми": 328,
      "ние": 329,
      "il": 330,
      "for": 331,
      "ди": 332,
      "se": 333,
      "ation": 334,
      "до": 335,
      "ment": 336,
      "ск": 337,
      "ly": 338,
      "из": 339,
      "we": 340,
      "па": 341,
      "de": 342,
      "пе": 343,
      "га": 344,
      "pro": 345,
      "при": 346,
      "res": 347,
      "ци": 348,
      "con": 349,
      "ните": 350,
      "im": 351,
      "ще": 352,
      "зи": 353,
      "wh": 354,
      "же": 355,
      "no": 356,
      "ване": 357,
      "su": 358,
      "вро": 359,
      "ния": 360,
      "ност": 361,
      "he": 362,
      "раз": 363,
      "пред": 364,
      "are": 365,
      "ло": 366,
      "po": 367,
      "ър": 368,
      "ки": 369,
      "пра": 370,
      "са": 371,
      "uro": 372,
      "ce": 373,
      "li": 374,
      "Euro": 375,
      "ста": 376,
      "ch": 377,
      "Europe": 378,
      "ря": 379,
      "жа": 380,
      "ut": 381,
      "ver": 382,
      "ha": 383,
      "this": 384,
      "ra": 385,
      "ort": 386,
      "so": 387,
      "un": 388,
      "ld": 389,
      "lo": 390,
      "id": 391,
      "ul": 392,
      "вропе": 393,
      "вропей": 394,
      "port": 395,
      "com": 396,
      "ne": 397,
      "ab": 398,
      "ру": 399,
      "ска": 400,
      "мен": 401,
      "ri": 402,
      "ith": 403,
      "ията": 404,
      "чи": 405,
      "ag": 406,
      "ill": 407,
      "with": 408,
      "em": 409,
      "ше": 410,
      "ate": 411,
      "European": 412,
      "ча": 413,
      "ur": 414,
      "ad": 415,
      "not": 416,
      "gh": 417,
      "our": 418,
      "това": 419,
      "ter": 420,
      "ke": 421,
      "The": 422,
      "ля": 423,
      "под": 424,
      "ната": 425,
      "have": 426,
      "сти": 427,
      "ci": 428,
      "що": 429,
      "oun": 430,
      "бе": 431,
      "ould": 432,
      "ity": 433,
      "te": 434,
      "mo": 435,
      "це": 436,
      "ство": 437,
      "am": 438,
      "кои": 439,
      "сто": 440,
      "тел": 441,
      "op": 442,
      "би": 443,
      "sion": 444,
      "ги": 445,
      "ir": 446,
      "бва": 447,
      "рябва": 448,
      "вропейск": 449,
      "ay": 450,
      "бъ": 451,
      "ive": 452,
      "со": 453,
      "сно": 454,
      "дър": 455,
      "us": 456,
      "хо": 457,
      "20": 458,
      "държа": 459,
      "ac": 460,
      "ich": 461,
      "сле": 462,
      "will": 463,
      "гра": 464,
      "жда": 465,
      "ор": 466,
      "ex": 467,
      "which": 468,
      "трябва": 469,
      "ts": 470,
      "ду": 471,
      "които": 472,
      "ess": 473,
      "sh": 474,
      "all": 475,
      "ъл": 476,
      "ust": 477,
      "me": 478,
      "лен": 479,
      "като": 480,
      "ies": 481,
      "ин": 482,
      "ain": 483,
      "ge": 484,
      "вър": 485,
      "ber": 486,
      "by": 487,
      "вите": 488,
      "стра": 489,
      "ня": 490,
      "ето": 491,
      "спо": 492,
      "ват": 493,
      "ща": 494,
      "fe": 495,
      "ът": 496,
      "мис": 497,
      "Com": 498,
      "жи": 499,
      "ция": 500,
      "mis": 501,
      "ant": 502,
      "въз": 503,
      "Европейск": 504,
      "лно": 505,
      "qu": 506,
      "бо": 507,
      "отно": 508,
      "has": 509,
      "вя": 510,
      "след": 511,
      "лю": 512,
      "ването": 513,
      "act": 514,
      "ol": 515,
      "ther": 516,
      "нието": 517,
      "Европейския": 518,
      "кти": 519,
      "est": 520,
      "wor": 521,
      "Ко": 522,
      "къ": 523,
      "ства": 524,
      "if": 525,
      "кон": 526,
      "ers": 527,
      "mission": 528,
      "бъде": 529,
      "pos": 530,
      "art": 531,
      "ions": 532,
      "ха": 533,
      "si": 534,
      "out": 535,
      "lic": 536,
      "tr": 537,
      "ред": 538,
      "кре": 539,
      "Commission": 540,
      "фи": 541,
      "end": 542,
      "мно": 543,
      "гово": 544,
      "EU": 545,
      "go": 546,
      "ско": 547,
      "лу": 548,
      "Th": 549,
      "ту": 550,
      "зна": 551,
      "ap": 552,
      "дател": 553,
      "нето": 554,
      "кто": 555,
      "co": 556,
      "do": 557,
      "ma": 558,
      "cial": 559,
      "ember": 560,
      "има": 561,
      "also": 562,
      "член": 563,
      "coun": 564,
      "мисията": 565,
      "ламен": 566,
      "ба": 567,
      "reg": 568,
      "коно": 569,
      "man": 570,
      "Un": 571,
      "cr": 572,
      "str": 573,
      "поли": 574,
      "ates": 575,
      "кра": 576,
      "und": 577,
      "resid": 578,
      "fo": 579,
      "пи": 580,
      "but": 581,
      "one": 582,
      "ят": 583,
      "ното": 584,
      "полити": 585,
      "iv": 586,
      "pl": 587,
      "юз": 588,
      "зо": 589,
      "ard": 590,
      "ree": 591,
      "ta": 592,
      "вата": 593,
      "су": 594,
      "Комисията": 595,
      "Presid": 596,
      "ament": 597,
      "can": 598,
      "сич": 599,
      "ността": 600,
      "съюз": 601,
      "St": 602,
      "ран": 603,
      "rom": 604,
      "ren": 605,
      "ure": 606,
      "able": 607,
      "Member": 608,
      "would": 609,
      "We": 610,
      "part": 611,
      "there": 612,
      "въпро": 613,
      "very": 614,
      "must": 615,
      "du": 616,
      "from": 617,
      "ложе": 618,
      "cl": 619,
      "рламен": 620,
      "циа": 621,
      "ски": 622,
      "дей": 623,
      "Съ": 624,
      "ans": 625,
      "fin": 626,
      "should": 627,
      "гу": 628,
      "щи": 629,
      "всич": 630,
      "клю": 631,
      "много": 632,
      "предсе": 633,
      "ble": 634,
      "може": 635,
      "au": 636,
      "вни": 637,
      "tri": 638,
      "ations": 639,
      "към": 640,
      "сте": 641,
      "need": 642,
      "In": 643,
      "дъл": 644,
      "Union": 645,
      "work": 646,
      "гла": 647,
      "кла": 648,
      "od": 649,
      "President": 650,
      "ple": 651,
      "ist": 652,
      "ef": 653,
      "доб": 654,
      "arli": 655,
      "vi": 656,
      "жду": 657,
      "its": 658,
      "иска": 659,
      "То": 660,
      "ud": 661,
      "председател": 662,
      "ус": 663,
      "ЕС": 664,
      "кой": 665,
      "което": 666,
      "arliament": 667,
      "It": 668,
      "cre": 669,
      "дат": 670,
      "еди": 671,
      "стве": 672,
      "ical": 673,
      "кономи": 674,
      "ments": 675,
      "econ": 676,
      "кри": 677,
      "ght": 678,
      "sup": 679,
      "import": 680,
      "States": 681,
      "ous": 682,
      "more": 683,
      "икономи": 684,
      "цията": 685,
      "между": 686,
      "dis": 687,
      "ку": 688,
      "този": 689,
      "прави": 690,
      "ction": 691,
      "коя": 692,
      "cess": 693,
      "ance": 694,
      "раб": 695,
      "ръ": 696,
      "ho": 697,
      "been": 698,
      "ската": 699,
      "ед": 700,
      "шение": 701,
      "също": 702,
      "comm": 703,
      "fore": 704,
      "която": 705,
      "Parliament": 706,
      "icul": 707,
      "подкре": 708,
      "ord": 709,
      "така": 710,
      "ire": 711,
      "econom": 712,
      "tim": 713,
      "тре": 714,
      "цио": 715,
      "осно": 716,
      "лага": 717,
      "vo": 718,
      "Евро": 719,
      "вече": 720,
      "ции": 721,
      "членки": 722,
      "който": 723,
      "their": 724,
      "ish": 725,
      "you": 726,
      "ast": 727,
      "дру": 728,
      "сво": 729,
      "работ": 730,
      "ary": 731,
      "вре": 732,
      "reat": 733,
      "вен": 734,
      "тъ": 735,
      "gy": 736,
      "Европа": 737,
      "pres": 738,
      "нан": 739,
      "всички": 740,
      "ходи": 741,
      "тази": 742,
      "рите": 743,
      "pre": 744,
      "прие": 745,
      "This": 746,
      "тези": 747,
      "ted": 748,
      "iti": 749,
      "лко": 750,
      "gr": 751,
      "per": 752,
      "финан": 753,
      "пъл": 754,
      "следва": 755,
      "now": 756,
      "слу": 757,
      "мер": 758,
      "гле": 759,
      "мож": 760,
      "зе": 761,
      "или": 762,
      "вия": 763,
      "ша": 764,
      "ството": 765,
      "pr": 766,
      "cy": 767,
      "възмож": 768,
      "докла": 769,
      "ong": 770,
      "other": 771,
      "ally": 772,
      "пол": 773,
      "polic": 774,
      "tra": 775,
      "вет": 776,
      "сре": 777,
      "както": 778,
      "фор": 779,
      "стоя": 780,
      "тру": 781,
      "ране": 782,
      "ките": 783,
      "200": 784,
      "сигу": 785,
      "най": 786,
      "ob": 787,
      "лни": 788,
      "Па": 789,
      "ваме": 790,
      "соб": 791,
      "ца": 792,
      "ind": 793,
      "фе": 794,
      "ach": 795,
      "ational": 796,
      "ces": 797,
      "who": 798,
      "form": 799,
      "ll": 800,
      "По": 801,
      "int": 802,
      "Това": 803,
      "сме": 804,
      "was": 805,
      "these": 806,
      "важ": 807,
      "ens": 808,
      "king": 809,
      "ctive": 810,
      "спе": 811,
      "um": 812,
      "cur": 813,
      "Mr": 814,
      "ключ": 815,
      "чита": 816,
      "държави": 817,
      "tries": 818,
      "important": 819,
      "относно": 820,
      "like": 821,
      "new": 822,
      "gn": 823,
      "ся": 824,
      "ities": 825,
      "fa": 826,
      "countries": 827,
      "bet": 828,
      "рез": 829,
      "рт": 830,
      "leg": 831,
      "ated": 832,
      "ye": 833,
      "support": 834,
      "velo": 835,
      "защо": 836,
      "velop": 837,
      "бъдат": 838,
      "ition": 839,
      "пла": 840,
      "fic": 841,
      "нията": 842,
      "up": 843,
      "ev": 844,
      "cer": 845,
      "tern": 846,
      "report": 847,
      "ome": 848,
      "стта": 849,
      "годи": 850,
      "mar": 851,
      "само": 852,
      "ката": 853,
      "обходи": 854,
      "доста": 855,
      "ause": 856,
      "гражда": 857,
      "тя": 858,
      "вам": 859,
      "age": 860,
      "дейст": 861,
      "ople": 862,
      "ските": 863,
      "they": 864,
      "чни": 865,
      "low": 866,
      "spe": 867,
      "ting": 868,
      "ener": 869,
      "кт": 870,
      "agree": 871,
      "cont": 872,
      "je": 873,
      "икономиче": 874,
      "ility": 875,
      "сред": 876,
      "държавите": 877,
      "За": 878,
      "ен": 879,
      "все": 880,
      "cil": 881,
      "develop": 882,
      "отношение": 883,
      "На": 884,
      "Парламен": 885,
      "мата": 886,
      "ghts": 887,
      "един": 888,
      "people": 889,
      "рност": 890,
      "ши": 891,
      "economic": 892,
      "лите": 893,
      "ty": 894,
      "ence": 895,
      "Coun": 896,
      "дни": 897,
      "разви": 898,
      "cause": 899,
      "ser": 900,
      "тира": 901,
      "щата": 902,
      "Council": 903,
      "чно": 904,
      "разу": 905,
      "ial": 906,
      "полз": 907,
      "ution": 908,
      "about": 909,
      "gu": 910,
      "необходи": 911,
      "finan": 912,
      "рен": 913,
      "обла": 914,
      "инте": 915,
      "way": 916,
      "ia": 917,
      "лна": 918,
      "бле": 919,
      "lear": 920,
      "преди": 921,
      "пости": 922,
      "ough": 923,
      "въпрос": 924,
      "стъ": 925,
      "ците": 926,
      "ху": 927,
      "eve": 928,
      "ително": 929,
      "вно": 930,
      "201": 931,
      "time": 932,
      "как": 933,
      "ful": 934,
      "some": 935,
      "year": 936,
      "policy": 937,
      "предложе": 938,
      "ced": 939,
      "време": 940,
      "over": 941,
      "ене": 942,
      "ден": 943,
      "цен": 944,
      "ative": 945,
      "prov": 946,
      "хме": 947,
      "ход": 948,
      "тър": 949,
      "because": 950,
      "гна": 951,
      "come": 952,
      "паза": 953,
      "wever": 954,
      "propos": 955,
      "sa": 956,
      "trans": 957,
      "only": 958,
      "get": 959,
      "беше": 960,
      "chan": 961,
      "again": 962,
      "мя": 963,
      "европейск": 964,
      "без": 965,
      "лните": 966,
      "съще": 967,
      "ското": 968,
      "sure": 969,
      "what": 970,
      "тите": 971,
      "отгово": 972,
      "ise": 973,
      "ack": 974,
      "стру": 975,
      "lit": 976,
      "ms": 977,
      "Не": 978,
      "ow": 979,
      "предста": 980,
      "ating": 981,
      "оба": 982,
      "през": 983,
      "бли": 984,
      "rent": 985,
      "финансо": 986,
      "щите": 987,
      "гаран": 988,
      "than": 989,
      "разуме": 990,
      "ase": 991,
      "my": 992,
      "rights": 993,
      "emp": 994,
      "ject": 995,
      "цел": 996,
      "пу": 997,
      "issu": 998,
      "under": 999,
      "мите": 1000,
      "whe": 1001,
      "marke": 1002,
      "голя": 1003,
      "вета": 1004,
      "clear": 1005,
      "зда": 1006,
      "хора": 1007,
      "day": 1008,
      "съм": 1009,
      "inv": 1010,
      "ip": 1011,
      "им": 1012,
      "вид": 1013,
      "вле": 1014,
      "stru": 1015,
      "пробле": 1016,
      "помо": 1017,
      "ures": 1018,
      "cris": 1019,
      "ween": 1020,
      "социа": 1021,
      "between": 1022,
      "ub": 1023,
      "подкрепа": 1024,
      "създа": 1025,
      "парламен": 1026,
      "pect": 1027,
      "ass": 1028,
      "fund": 1029,
      "каза": 1030,
      "кога": 1031,
      "наро": 1032,
      "00": 1033,
      "produ": 1034,
      "проце": 1035,
      "вие": 1036,
      "icular": 1037,
      "financial": 1038,
      "орга": 1039,
      "pon": 1040,
      "hu": 1041,
      "oper": 1042,
      "право": 1043,
      "ue": 1044,
      "rel": 1045,
      "До": 1046,
      "ан": 1047,
      "particular": 1048,
      "във": 1049,
      "ine": 1050,
      "into": 1051,
      "inte": 1052,
      "such": 1053,
      "sy": 1054,
      "вропейската": 1055,
      "any": 1056,
      "енер": 1057,
      "crisis": 1058,
      "стъп": 1059,
      "ice": 1060,
      "ose": 1061,
      "още": 1062,
      "доклад": 1063,
      "sit": 1064,
      "itiz": 1065,
      "them": 1066,
      "свобо": 1067,
      "fact": 1068,
      "tain": 1069,
      "igh": 1070,
      "използ": 1071,
      "order": 1072,
      "он": 1073,
      "преде": 1074,
      "Ка": 1075,
      "рази": 1076,
      "thing": 1077,
      "споразуме": 1078,
      "чение": 1079,
      "гласу": 1080,
      "citiz": 1081,
      "дне": 1082,
      "реги": 1083,
      "гат": 1084,
      "няма": 1085,
      "polit": 1086,
      "върху": 1087,
      "фа": 1088,
      "аз": 1089,
      "ame": 1090,
      "дове": 1091,
      "повече": 1092,
      "try": 1093,
      "защи": 1094,
      "политика": 1095,
      "ep": 1096,
      "ем": 1097,
      "dif": 1098,
      "вител": 1099,
      "beli": 1100,
      "форма": 1101,
      "take": 1102,
      "му": 1103,
      "prote": 1104,
      "make": 1105,
      "sible": 1106,
      "развити": 1107,
      "respon": 1108,
      "la": 1109,
      "ink": 1110,
      "pri": 1111,
      "криза": 1112,
      "ну": 1113,
      "циона": 1114,
      "min": 1115,
      "бю": 1116,
      "гне": 1117,
      "вод": 1118,
      "начи": 1119,
      "present": 1120,
      "af": 1121,
      "със": 1122,
      "лната": 1123,
      "продъл": 1124,
      "vel": 1125,
      "deb": 1126,
      "fir": 1127,
      "ress": 1128,
      "демо": 1129,
      "връ": 1130,
      "систе": 1131,
      "рам": 1132,
      "колко": 1133,
      "ural": 1134,
      "ради": 1135,
      "citizens": 1136,
      "just": 1137,
      "произ": 1138,
      "една": 1139,
      "ency": 1140,
      "грани": 1141,
      "stem": 1142,
      "therefore": 1143,
      "ian": 1144,
      "cus": 1145,
      "гарантира": 1146,
      "чо": 1147,
      "политиче": 1148,
      "дан": 1149,
      "human": 1150,
      "those": 1151,
      "comp": 1152,
      "incl": 1153,
      "ефе": 1154,
      "red": 1155,
      "Европейският": 1156,
      "рабо": 1157,
      "social": 1158,
      "каз": 1159,
      "meas": 1160,
      "над": 1161,
      "ult": 1162,
      "see": 1163,
      "защото": 1164,
      "stit": 1165,
      "quest": 1166,
      "dec": 1167,
      "ublic": 1168,
      "believe": 1169,
      "intern": 1170,
      "Парламента": 1171,
      "ards": 1172,
      "mon": 1173,
      "лта": 1174,
      "when": 1175,
      "proposal": 1176,
      "Ho": 1177,
      "част": 1178,
      "gra": 1179,
      "energy": 1180,
      "market": 1181,
      "стано": 1182,
      "tion": 1183,
      "страна": 1184,
      "political": 1185,
      "обще": 1186,
      "However": 1187,
      "ности": 1188,
      "наш": 1189,
      "дже": 1190,
      "ако": 1191,
      "proble": 1192,
      "парламент": 1193,
      "чове": 1194,
      "bas": 1195,
      "system": 1196,
      "main": 1197,
      "stand": 1198,
      "ския": 1199,
      "most": 1200,
      "чните": 1201,
      "разли": 1202,
      "тен": 1203,
      "ният": 1204,
      "други": 1205,
      "ace": 1206,
      "равни": 1207,
      "она": 1208,
      "incre": 1209,
      "правата": 1210,
      "нение": 1211,
      "being": 1212,
      "страни": 1213,
      "bo": 1214,
      "xt": 1215,
      "bal": 1216,
      "rest": 1217,
      "органи": 1218,
      "icult": 1219,
      "many": 1220,
      "народ": 1221,
      "бюдже": 1222,
      "рио": 1223,
      "against": 1224,
      "вят": 1225,
      "ctor": 1226,
      "cent": 1227,
      "обаче": 1228,
      "resol": 1229,
      "читам": 1230,
      "ефекти": 1231,
      "cons": 1232,
      "път": 1233,
      "изме": 1234,
      "sub": 1235,
      "cern": 1236,
      "подоб": 1237,
      "level": 1238,
      "uation": 1239,
      "вните": 1240,
      "трудни": 1241,
      "effe": 1242,
      "необходимо": 1243,
      "regul": 1244,
      "sel": 1245,
      "Съвета": 1246,
      "ives": 1247,
      "add": 1248,
      "plement": 1249,
      "опреде": 1250,
      "bud": 1251,
      "concern": 1252,
      "med": 1253,
      "рат": 1254,
      "лаго": 1255,
      "ving": 1256,
      "свър": 1257,
      "лено": 1258,
      "настоя": 1259,
      "демокра": 1260,
      "когато": 1261,
      "ks": 1262,
      "rit": 1263,
      "могат": 1264,
      "пен": 1265,
      "ious": 1266,
      "use": 1267,
      "потре": 1268,
      "защита": 1269,
      "development": 1270,
      "страте": 1271,
      "made": 1272,
      "dire": 1273,
      "mat": 1274,
      "случа": 1275,
      "well": 1276,
      "тъй": 1277,
      "тът": 1278,
      "лан": 1279,
      "упра": 1280,
      "oup": 1281,
      "лия": 1282,
      "There": 1283,
      "вете": 1284,
      "бя": 1285,
      "рта": 1286,
      "сега": 1287,
      "пър": 1288,
      "вна": 1289,
      "включ": 1290,
      "основа": 1291,
      "ця": 1292,
      "сътрудни": 1293,
      "read": 1294,
      "търго": 1295,
      "ew": 1296,
      "think": 1297,
      "strate": 1298,
      "чна": 1299,
      "country": 1300,
      "едно": 1301,
      "гру": 1302,
      "ide": 1303,
      "ститу": 1304,
      "гия": 1305,
      "then": 1306,
      "Въ": 1307,
      "рането": 1308,
      "measures": 1309,
      "were": 1310,
      "законо": 1311,
      "say": 1312,
      "лата": 1313,
      "ву": 1314,
      "unity": 1315,
      "тех": 1316,
      "agreement": 1317,
      "uture": 1318,
      "mit": 1319,
      "реше": 1320,
      "great": 1321,
      "el": 1322,
      "прилага": 1323,
      "fi": 1324,
      "where": 1325,
      "жо": 1326,
      "ound": 1327,
      "ision": 1328,
      "пя": 1329,
      "future": 1330,
      "row": 1331,
      "call": 1332,
      "начин": 1333,
      "предоста": 1334,
      "ual": 1335,
      "right": 1336,
      "тра": 1337,
      "вто": 1338,
      "imp": 1339,
      "implement": 1340,
      "abl": 1341,
      "направи": 1342,
      "adop": 1343,
      "госпо": 1344,
      "long": 1345,
      "vern": 1346,
      "циите": 1347,
      "know": 1348,
      "govern": 1349,
      "мерки": 1350,
      "good": 1351,
      "някои": 1352,
      "cond": 1353,
      "ensure": 1354,
      "rough": 1355,
      "важно": 1356,
      "sum": 1357,
      "стой": 1358,
      "бор": 1359,
      "телно": 1360,
      "твър": 1361,
      "приема": 1362,
      "мент": 1363,
      "връз": 1364,
      "същест": 1365,
      "национа": 1366,
      "bility": 1367,
      "положе": 1368,
      "стопа": 1369,
      "паз": 1370,
      "situation": 1371,
      "pet": 1372,
      "можем": 1373,
      "Европейската": 1374,
      "fra": 1375,
      "чен": 1376,
      "рия": 1377,
      "contin": 1378,
      "неза": 1379,
      "сел": 1380,
      "requ": 1381,
      "ific": 1382,
      "чрез": 1383,
      "собе": 1384,
      "qual": 1385,
      "чава": 1386,
      "уве": 1387,
      "view": 1388,
      "срещ": 1389,
      "зд": 1390,
      "app": 1391,
      "сътрудниче": 1392,
      "оста": 1393,
      "tee": 1394,
      "public": 1395,
      "appro": 1396,
      "ild": 1397,
      "тях": 1398,
      "ention": 1399,
      "high": 1400,
      "европей": 1401,
      "тран": 1402,
      "national": 1403,
      "operation": 1404,
      "alth": 1405,
      "want": 1406,
      "исти": 1407,
      "isation": 1408,
      "изи": 1409,
      "demo": 1410,
      "средства": 1411,
      "through": 1412,
      "секто": 1413,
      "нци": 1414,
      "cts": 1415,
      "разиск": 1416,
      "possible": 1417,
      "нама": 1418,
      "работа": 1419,
      "менно": 1420,
      "ices": 1421,
      "ner": 1422,
      "взе": 1423,
      "развитие": 1424,
      "вън": 1425,
      "години": 1426,
      "iven": 1427,
      "сър": 1428,
      "regard": 1429,
      "budget": 1430,
      "first": 1431,
      "бите": 1432,
      "sector": 1433,
      "current": 1434,
      "мина": 1435,
      "ship": 1436,
      "ism": 1437,
      "As": 1438,
      "ised": 1439,
      "years": 1440,
      "isl": 1441,
      "hel": 1442,
      "особе": 1443,
      "att": 1444,
      "кта": 1445,
      "щия": 1446,
      "благо": 1447,
      "et": 1448,
      "послед": 1449,
      "debate": 1450,
      "ors": 1451,
      "put": 1452,
      "внима": 1453,
      "area": 1454,
      "свърза": 1455,
      "ие": 1456,
      "uch": 1457,
      "sol": 1458,
      "евро": 1459,
      "мест": 1460,
      "кту": 1461,
      "осигу": 1462,
      "sign": 1463,
      "here": 1464,
      "улта": 1465,
      "равнище": 1466,
      "utions": 1467,
      "проти": 1468,
      "serv": 1469,
      "ability": 1470,
      "loy": 1471,
      "curity": 1472,
      "правител": 1473,
      "arge": 1474,
      "ak": 1475,
      "help": 1476,
      "Ли": 1477,
      "дова": 1478,
      "разгле": 1479,
      "съгла": 1480,
      "бира": 1481,
      "same": 1482,
      "every": 1483,
      "cep": 1484,
      "възможност": 1485,
      "золю": 1486,
      "интере": 1487,
      "причи": 1488,
      "прове": 1489,
      "вот": 1490,
      "работни": 1491,
      "today": 1492,
      "реа": 1493,
      "pend": 1494,
      "сигурност": 1495,
      "issue": 1496,
      "even": 1497,
      "лява": 1498,
      "здра": 1499,
      "срещу": 1500,
      "преки": 1501,
      "inform": 1502,
      "ign": 1503,
      "fer": 1504,
      "виси": 1505,
      "ele": 1506,
      "изпъл": 1507,
      "мини": 1508,
      "legisl": 1509,
      "пазар": 1510,
      "резулта": 1511,
      "логи": 1512,
      "world": 1513,
      "областта": 1514,
      "институ": 1515,
      "ti": 1516,
      "човека": 1517,
      "пример": 1518,
      "men": 1519,
      "говори": 1520,
      "compet": 1521,
      "br": 1522,
      "thor": 1523,
      "законодател": 1524,
      "reed": 1525,
      "commit": 1526,
      "праве": 1527,
      "eng": 1528,
      "помощ": 1529,
      "instit": 1530,
      "подход": 1531,
      "проду": 1532,
      "усло": 1533,
      "ves": 1534,
      "особено": 1535,
      "доклада": 1536,
      "law": 1537,
      "Wh": 1538,
      "държава": 1539,
      "мента": 1540,
      "achi": 1541,
      "въпроси": 1542,
      "поста": 1543,
      "ry": 1544,
      "рани": 1545,
      "мал": 1546,
      "includ": 1547,
      "reaty": 1548,
      "point": 1549,
      "protection": 1550,
      "прият": 1551,
      "far": 1552,
      "връзка": 1553,
      "ite": 1554,
      "vir": 1555,
      "cannot": 1556,
      "Commissioner": 1557,
      "less": 1558,
      "парт": 1559,
      "нашите": 1560,
      "ig": 1561,
      "резолю": 1562,
      "gram": 1563,
      "насър": 1564,
      "нението": 1565,
      "gent": 1566,
      "програ": 1567,
      "стан": 1568,
      "certain": 1569,
      "own": 1570,
      "ready": 1571,
      "зво": 1572,
      "специа": 1573,
      "ясно": 1574,
      "tak": 1575,
      "voted": 1576,
      "ext": 1577,
      "resolution": 1578,
      "принци": 1579,
      "конкре": 1580,
      "tw": 1581,
      "жите": 1582,
      "даде": 1583,
      "дна": 1584,
      "too": 1585,
      "Mad": 1586,
      "изиск": 1587,
      "real": 1588,
      "how": 1589,
      "cour": 1590,
      "change": 1591,
      "ory": 1592,
      "финанси": 1593,
      "fav": 1594,
      "interest": 1595,
      "Догово": 1596,
      "cooperation": 1597,
      "That": 1598,
      "process": 1599,
      "bon": 1600,
      "европейските": 1601,
      "ление": 1602,
      "стопан": 1603,
      "omen": 1604,
      "рни": 1605,
      "vote": 1606,
      "international": 1607,
      "exam": 1608,
      "тно": 1609,
      "legal": 1610,
      "rap": 1611,
      "necess": 1612,
      "наме": 1613,
      "tribut": 1614,
      "could": 1615,
      "пас": 1616,
      "тро": 1617,
      "set": 1618,
      "region": 1619,
      "тни": 1620,
      "ректи": 1621,
      "добре": 1622,
      "производ": 1623,
      "напред": 1624,
      "ited": 1625,
      "тери": 1626,
      "йна": 1627,
      "respect": 1628,
      "вето": 1629,
      "значение": 1630,
      "полу": 1631,
      "dra": 1632,
      "onment": 1633,
      "common": 1634,
      "Madam": 1635,
      "security": 1636,
      "2020": 1637,
      "employ": 1638,
      "нова": 1639,
      "invest": 1640,
      "does": 1641,
      "still": 1642,
      "place": 1643,
      "ък": 1644,
      "ген": 1645,
      "Трябва": 1646,
      "redu": 1647,
      "бих": 1648,
      "pen": 1649,
      "нали": 1650,
      "car": 1651,
      "граждани": 1652,
      "vironment": 1653,
      "much": 1654,
      "ложи": 1655,
      "fici": 1656,
      "ком": 1657,
      "Ето": 1658,
      "both": 1659,
      "two": 1660,
      "ential": 1661,
      "цяло": 1662,
      "щност": 1663,
      "зова": 1664,
      "cing": 1665,
      "енерги": 1666,
      "clo": 1667,
      "aim": 1668,
      "within": 1669,
      "тек": 1670,
      "задъл": 1671,
      "чу": 1672,
      "запо": 1673,
      "висо": 1674,
      "информа": 1675,
      "него": 1676,
      "question": 1677,
      "num": 1678,
      "favour": 1679,
      "ile": 1680,
      "коле": 1681,
      "рата": 1682,
      "позво": 1683,
      "ответ": 1684,
      "прое": 1685,
      "сътрудничество": 1686,
      "lobal": 1687,
      "лят": 1688,
      "hope": 1689,
      "ider": 1690,
      "вести": 1691,
      "опи": 1692,
      "crat": 1693,
      "увели": 1694,
      "точ": 1695,
      "засе": 1696,
      "конку": 1697,
      "author": 1698,
      "еле": 1699,
      "goti": 1700,
      "2009": 1701,
      "бра": 1702,
      "state": 1703,
      "hap": 1704,
      "pare": 1705,
      "способ": 1706,
      "нас": 1707,
      "mi": 1708,
      "itions": 1709,
      "черта": 1710,
      "sur": 1711,
      "решение": 1712,
      "управле": 1713,
      "ten": 1714,
      "Treaty": 1715,
      "възможно": 1716,
      "loc": 1717,
      "negoti": 1718,
      "лното": 1719,
      "всичко": 1720,
      "роля": 1721,
      "tal": 1722,
      "ствено": 1723,
      "wel": 1724,
      "цион": 1725,
      "discus": 1726,
      "изключ": 1727,
      "съответ": 1728,
      "съществу": 1729,
      "environment": 1730,
      "illion": 1731,
      "crim": 1732,
      "inter": 1733,
      "посо": 1734,
      "фон": 1735,
      "бъдеще": 1736,
      "При": 1737,
      "already": 1738,
      "предвид": 1739,
      "публи": 1740,
      "серио": 1741,
      "структу": 1742,
      "нови": 1743,
      "стро": 1744,
      "sions": 1745,
      "action": 1746,
      "your": 1747,
      "сро": 1748,
      "arch": 1749,
      "инвести": 1750,
      "had": 1751,
      "ята": 1752,
      "разпо": 1753,
      "necessary": 1754,
      "зви": 1755,
      "рна": 1756,
      "imate": 1757,
      "reas": 1758,
      "днес": 1759,
      "jor": 1760,
      "DE": 1761,
      "насо": 1762,
      "вся": 1763,
      "val": 1764,
      "Из": 1765,
      "гри": 1766,
      "program": 1767,
      "major": 1768,
      "стаби": 1769,
      "менти": 1770,
      "inci": 1771,
      "di": 1772,
      "бед": 1773,
      "система": 1774,
      "конкурен": 1775,
      "gan": 1776,
      "имат": 1777,
      "ban": 1778,
      "strategy": 1779,
      "ources": 1780,
      "trade": 1781,
      "обсъ": 1782,
      "бяха": 1783,
      "Те": 1784,
      "ask": 1785,
      "они": 1786,
      "там": 1787,
      "cted": 1788,
      "голяма": 1789,
      "diffe": 1790,
      "рти": 1791,
      "course": 1792,
      "allow": 1793,
      "споразумение": 1794,
      "търгов": 1795,
      "women": 1796,
      "par": 1797,
      "борба": 1798,
      "мисия": 1799,
      "ствие": 1800,
      "matter": 1801,
      "пълно": 1802,
      "soci": 1803,
      "safe": 1804,
      "ква": 1805,
      "why": 1806,
      "работи": 1807,
      "speci": 1808,
      "гажи": 1809,
      "last": 1810,
      "кли": 1811,
      "opport": 1812,
      "effective": 1813,
      "urther": 1814,
      "гражданите": 1815,
      "princi": 1816,
      "used": 1817,
      "международ": 1818,
      "sing": 1819,
      "група": 1820,
      "гласува": 1821,
      "role": 1822,
      "position": 1823,
      "въве": 1824,
      "Сле": 1825,
      "уси": 1826,
      "consider": 1827,
      "initi": 1828,
      "peri": 1829,
      "вната": 1830,
      "Ch": 1831,
      "око": 1832,
      "нася": 1833,
      "text": 1834,
      "col": 1835,
      "information": 1836,
      "health": 1837,
      "ablish": 1838,
      "pay": 1839,
      "ангажи": 1840,
      "grow": 1841,
      "Пред": 1842,
      "des": 1843,
      "реди": 1844,
      "case": 1845,
      "въпроса": 1846,
      "От": 1847,
      "increas": 1848,
      "ince": 1849,
      "plan": 1850,
      "хората": 1851,
      "пози": 1852,
      "инстру": 1853,
      "establish": 1854,
      "нь": 1855,
      "разя": 1856,
      "искал": 1857,
      "global": 1858,
      "itive": 1859,
      "предприят": 1860,
      "key": 1861,
      "година": 1862,
      "потребите": 1863,
      "ке": 1864,
      "нужда": 1865,
      "Re": 1866,
      "taken": 1867,
      "consum": 1868,
      "ran": 1869,
      "искам": 1870,
      "wer": 1871,
      "оби": 1872,
      "reason": 1873,
      "свен": 1874,
      "сни": 1875,
      "provid": 1876,
      "региона": 1877,
      "uring": 1878,
      "require": 1879,
      "два": 1880,
      "ss": 1881,
      "gener": 1882,
      "присъ": 1883,
      "члено": 1884,
      "needs": 1885,
      "Af": 1886,
      "щото": 1887,
      "number": 1888,
      "areas": 1889,
      "EN": 1890,
      "чени": 1891,
      "vis": 1892,
      "лиза": 1893,
      "open": 1894,
      "партнь": 1895,
      "чески": 1896,
      "said": 1897,
      "живот": 1898,
      "indust": 1899,
      "particularly": 1900,
      "job": 1901,
      "права": 1902,
      "сен": 1903,
      "ствата": 1904,
      "подкрепя": 1905,
      "Би": 1906,
      "contribut": 1907,
      "няколко": 1908,
      "дали": 1909,
      "2010": 1910,
      "without": 1911,
      "group": 1912,
      "имаме": 1913,
      "дата": 1914,
      "lead": 1915,
      "ряване": 1916,
      "Та": 1917,
      "struct": 1918,
      "mework": 1919,
      "считам": 1920,
      "три": 1921,
      "подчерта": 1922,
      "invol": 1923,
      "ун": 1924,
      "promo": 1925,
      "форми": 1926,
      "ents": 1927,
      "уча": 1928,
      "образ": 1929,
      "ules": 1930,
      "после": 1931,
      "writ": 1932,
      "дите": 1933,
      "ese": 1934,
      "pers": 1935,
      "еми": 1936,
      "бон": 1937,
      "практи": 1938,
      "контро": 1939,
      "Lis": 1940,
      "Lisbon": 1941,
      "голе": 1942,
      "той": 1943,
      "нен": 1944,
      "благода": 1945,
      "сабон": 1946,
      "чаване": 1947,
      "края": 1948,
      "успе": 1949,
      "reedom": 1950,
      "ограни": 1951,
      "поло": 1952,
      "Лисабон": 1953,
      "ини": 1954,
      "казва": 1955,
      "represent": 1956,
      "oura": 1957,
      "stain": 1958,
      "ately": 1959,
      "issues": 1960,
      "гот": 1961,
      "шата": 1962,
      "продължа": 1963,
      "tax": 1964,
      "процеду": 1965,
      "каже": 1966,
      "ved": 1967,
      "жен": 1968,
      "сна": 1969,
      "Con": 1970,
      "жела": 1971,
      "cept": 1972,
      "изисква": 1973,
      "гламен": 1974,
      "access": 1975,
      "истина": 1976,
      "продукти": 1977,
      "сили": 1978,
      "ollow": 1979,
      "means": 1980,
      "example": 1981,
      "agr": 1982,
      "ination": 1983,
      "problems": 1984,
      "reco": 1985,
      "цата": 1986,
      "действие": 1987,
      "self": 1988,
      "fair": 1989,
      "agricult": 1990,
      "sibility": 1991,
      "европейски": 1992,
      "prior": 1993,
      "gress": 1994,
      "степен": 1995,
      "дава": 1996,
      "ital": 1997,
      "amend": 1998,
      "accoun": 1999,
      "Ние": 2000,
      "ждане": 2001,
      "Договора": 2002,
      "ues": 2003,
      "jo": 2004,
      "чат": 2005,
      "fac": 2006,
      "рно": 2007,
      "допъл": 2008,
      "жение": 2009,
      "достатъ": 2010,
      "ning": 2011,
      "employment": 2012,
      "ben": 2013,
      "отговорност": 2014,
      "например": 2015,
      "вътре": 2016,
      "действия": 2017,
      "Се": 2018,
      "първо": 2019,
      "демократи": 2020,
      "institutions": 2021,
      "better": 2022,
      "problem": 2023,
      "Ако": 2024,
      "свързани": 2025,
      "strong": 2026,
      "транспо": 2027,
      "pra": 2028,
      "amental": 2029,
      "aid": 2030,
      "economy": 2031,
      "tech": 2032,
      "становя": 2033,
      "So": 2034,
      "prove": 2035,
      "малко": 2036,
      "постигна": 2037,
      "призова": 2038,
      "Затова": 2039,
      "кажа": 2040,
      "freedom": 2041,
      "quality": 2042,
      "cra": 2043,
      "ris": 2044,
      "Min": 2045,
      "обе": 2046,
      "Парламентът": 2047,
      "рамките": 2048,
      "cap": 2049,
      "специално": 2050,
      "какво": 2051,
      "озна": 2052,
      "циати": 2053,
      "места": 2054,
      "force": 2055,
      "бър": 2056,
      "gentle": 2057,
      "дори": 2058,
      "reng": 2059,
      "постигне": 2060,
      "iness": 2061,
      "effor": 2062,
      "директи": 2063,
      "vers": 2064,
      "may": 2065,
      "Ва": 2066,
      "зира": 2067,
      "sp": 2068,
      "gentlemen": 2069,
      "лност": 2070,
      "тук": 2071,
      "място": 2072,
      "сите": 2073,
      "gration": 2074,
      "bus": 2075,
      "19": 2076,
      "adies": 2077,
      "streng": 2078,
      "варя": 2079,
      "висимо": 2080,
      "step": 2081,
      "terms": 2082,
      "prev": 2083,
      "оча": 2084,
      "loo": 2085,
      "фици": 2086,
      "depend": 2087,
      "рността": 2088,
      "diff": 2089,
      "гията": 2090,
      "къде": 2091,
      "господа": 2092,
      "кан": 2093,
      "framework": 2094,
      "aran": 2095,
      "follow": 2096,
      "ater": 2097,
      "безо": 2098,
      "орите": 2099,
      "benef": 2100,
      "среда": 2101,
      "ланд": 2102,
      "стойчи": 2103,
      "инициати": 2104,
      "външ": 2105,
      "ъм": 2106,
      "предизви": 2107,
      "rules": 2108,
      "including": 2109,
      "Ви": 2110,
      "lid": 2111,
      "собстве": 2112,
      "proced": 2113,
      "ветства": 2114,
      "cor": 2115,
      "going": 2116,
      "услу": 2117,
      "информация": 2118,
      "представ": 2119,
      "лени": 2120,
      "основните": 2121,
      "fully": 2122,
      "сектор": 2123,
      "рим": 2124,
      "conf": 2125,
      "wards": 2126,
      "led": 2127,
      "цели": 2128,
      "term": 2129,
      "If": 2130,
      "For": 2131,
      "serious": 2132,
      "управление": 2133,
      "project": 2134,
      "eur": 2135,
      "member": 2136,
      "гите": 2137,
      "проблем": 2138,
      "porteur": 2139,
      "give": 2140,
      "suc": 2141,
      "положение": 2142,
      "расте": 2143,
      "сериоз": 2144,
      "ward": 2145,
      "труд": 2146,
      "resources": 2147,
      "vide": 2148,
      "внимание": 2149,
      "rapporteur": 2150,
      "сур": 2151,
      "climate": 2152,
      "mand": 2153,
      "ird": 2154,
      "sm": 2155,
      "политиката": 2156,
      "туа": 2157,
      "food": 2158,
      "writing": 2159,
      "комисия": 2160,
      "deal": 2161,
      "проми": 2162,
      "добро": 2163,
      "continue": 2164,
      "arity": 2165,
      "provide": 2166,
      "organ": 2167,
      "instru": 2168,
      "сла": 2169,
      "низ": 2170,
      "несе": 2171,
      "ctions": 2172,
      "medi": 2173,
      "ге": 2174,
      "sustain": 2175,
      "child": 2176,
      "устойчи": 2177,
      "реша": 2178,
      "знач": 2179,
      "guaran": 2180,
      "\".": 2181,
      "решения": 2182,
      "дел": 2183,
      "жените": 2184,
      "Мо": 2185,
      "sed": 2186,
      "извър": 2187,
      "нау": 2188,
      "стран": 2189,
      "different": 2190,
      "приорите": 2191,
      "products": 2192,
      "approach": 2193,
      "енергий": 2194,
      "станда": 2195,
      "ail": 2196,
      "Ту": 2197,
      "мена": 2198,
      "използва": 2199,
      "policies": 2200,
      "decision": 2201,
      "предоставя": 2202,
      "lig": 2203,
      "wn": 2204,
      "business": 2205,
      "поради": 2206,
      "проблеми": 2207,
      "ulation": 2208,
      "play": 2209,
      "viol": 2210,
      "явам": 2211,
      "improve": 2212,
      "EUR": 2213,
      "тори": 2214,
      "progress": 2215,
      "since": 2216,
      "Ма": 2217,
      "съществува": 2218,
      "bu": 2219,
      "наистина": 2220,
      "политически": 2221,
      "after": 2222,
      "климата": 2223,
      "Въпреки": 2224,
      "welcome": 2225,
      "ек": 2226,
      "докладчи": 2227,
      "достъп": 2228,
      "икономически": 2229,
      "paren": 2230,
      "безопас": 2231,
      "бан": 2232,
      "based": 2233,
      "ically": 2234,
      "Аз": 2235,
      "Про": 2236,
      "дово": 2237,
      "fish": 2238,
      "разбира": 2239,
      "cost": 2240,
      "мето": 2241,
      "effici": 2242,
      "pract": 2243,
      "given": 2244,
      "свето": 2245,
      "rodu": 2246,
      "факта": 2247,
      "ph": 2248,
      "иде": 2249,
      "regulation": 2250,
      "предизвика": 2251,
      "чва": 2252,
      "Ба": 2253,
      "strengthen": 2254,
      "difficult": 2255,
      "acc": 2256,
      "кар": 2257,
      "къв": 2258,
      "приеме": 2259,
      "мили": 2260,
      "cracy": 2261,
      "On": 2262,
      "отнася": 2263,
      "момента": 2264,
      "призна": 2265,
      "clu": 2266,
      "adopted": 2267,
      "contro": 2268,
      "further": 2269,
      "убе": 2270,
      "Считам": 2271,
      "increase": 2272,
      "мени": 2273,
      "сът": 2274,
      "ict": 2275,
      "жим": 2276,
      "изключително": 2277,
      "ines": 2278,
      "crit": 2279,
      "before": 2280,
      "ways": 2281,
      "предложение": 2282,
      "ied": 2283,
      "als": 2284,
      "данъ": 2285,
      "Гла": 2286,
      "отноше": 2287,
      "взема": 2288,
      "comple": 2289,
      "означава": 2290,
      "fundamental": 2291,
      "next": 2292,
      "light": 2293,
      "result": 2294,
      "legislation": 2295,
      "Ре": 2296,
      "включително": 2297,
      "нача": 2298,
      "рай": 2299,
      "постига": 2300,
      "10": 2301,
      "намаля": 2302,
      "free": 2303,
      "дате": 2304,
      "find": 2305,
      "Presidency": 2306,
      "предприятия": 2307,
      "isions": 2308,
      "вина": 2309,
      "регламен": 2310,
      "Иска": 2311,
      "Бих": 2312,
      "towards": 2313,
      "ising": 2314,
      "ouse": 2315,
      "whether": 2316,
      "uc": 2317,
      "solid": 2318,
      "ref": 2319,
      "reach": 2320,
      "предложението": 2321,
      "ман": 2322,
      "State": 2323,
      "recent": 2324,
      "growth": 2325,
      "лту": 2326,
      "introdu": 2327,
      "обществе": 2328,
      "отде": 2329,
      "suf": 2330,
      "care": 2331,
      "нещо": 2332,
      "De": 2333,
      "дователно": 2334,
      "achieve": 2335,
      "случай": 2336,
      "лена": 2337,
      "ресур": 2338,
      "точка": 2339,
      "hand": 2340,
      "making": 2341,
      "Съвет": 2342,
      "Об": 2343,
      "conditions": 2344,
      ".,": 2345,
      "search": 2346,
      "signific": 2347,
      "организа": 2348,
      "сед": 2349,
      "remain": 2350,
      "cratic": 2351,
      "ова": 2352,
      "скоро": 2353,
      "however": 2354,
      "пазара": 2355,
      "вията": 2356,
      "expres": 2357,
      "large": 2358,
      "Pro": 2359,
      "\",": 2360,
      "Спо": 2361,
      "ross": 2362,
      "Гласу": 2363,
      "back": 2364,
      "services": 2365,
      "Members": 2366,
      "authorities": 2367,
      "road": 2368,
      "small": 2369,
      "during": 2370,
      "Освен": 2371,
      "култу": 2372,
      "directive": 2373,
      "Commit": 2374,
      "mone": 2375,
      "авто": 2376,
      "лкова": 2377,
      "chall": 2378,
      "euro": 2379,
      "дени": 2380,
      "област": 2381,
      "av": 2382,
      "opin": 2383,
      "Fund": 2384,
      "дейност": 2385,
      "потребителите": 2386,
      "Committee": 2387,
      "account": 2388,
      "coura": 2389,
      "ladies": 2390,
      "хра": 2391,
      "pecial": 2392,
      "нява": 2393,
      "условия": 2394,
      "каче": 2395,
      "),": 2396,
      "толкова": 2397,
      "нения": 2398,
      "2008": 2399,
      "разискване": 2400,
      "дълго": 2401,
      "reform": 2402,
      "план": 2403,
      "шно": 2404,
      "negotiations": 2405,
      "importance": 2406,
      "ждането": 2407,
      "ute": 2408,
      "действа": 2409,
      "funds": 2410,
      "start": 2411,
      "gether": 2412,
      "hal": 2413,
      "изто": 2414,
      "чим": 2415,
      "жаване": 2416,
      "глед": 2417,
      "мъ": 2418,
      "log": 2419,
      "specific": 2420,
      "basis": 2421,
      "addition": 2422,
      "зра": 2423,
      "At": 2424,
      "simp": 2425,
      "bring": 2426,
      "implementation": 2427,
      "мигра": 2428,
      "лото": 2429,
      "госпожи": 2430,
      "hes": 2431,
      "transport": 2432,
      "vious": 2433,
      "йки": 2434,
      "става": 2435,
      "соли": 2436,
      "промиш": 2437,
      "спа": 2438,
      "opportunity": 2439,
      "greater": 2440,
      "същност": 2441,
      "coming": 2442,
      "tur": 2443,
      "бро": 2444,
      "Gr": 2445,
      "nov": 2446,
      "feren": 2447,
      "съжа": 2448,
      "line": 2449,
      "activ": 2450,
      "гл": 2451,
      "million": 2452,
      "селско": 2453,
      "mention": 2454,
      "power": 2455,
      "IT": 2456,
      "der": 2457,
      "essential": 2458,
      "резултат": 2459,
      "токо": 2460,
      "together": 2461,
      "ata": 2462,
      "research": 2463,
      "резолюция": 2464,
      "оцен": 2465,
      "европейската": 2466,
      "third": 2467,
      "comb": 2468,
      "кризата": 2469,
      "стратегия": 2470,
      "ore": 2471,
      "предлага": 2472,
      "forward": 2473,
      "Съветът": 2474,
      "especial": 2475,
      "utes": 2476,
      "especially": 2477,
      "000": 2478,
      "Group": 2479,
      "United": 2480,
      "Al": 2481,
      "нашата": 2482,
      "ефектив": 2483,
      "пое": 2484,
      "прозра": 2485,
      "arian": 2486,
      "move": 2487,
      "отново": 2488,
      "Има": 2489,
      "object": 2490,
      "институции": 2491,
      "шен": 2492,
      "говаря": 2493,
      "ime": 2494,
      "person": 2495,
      "taking": 2496,
      "impact": 2497,
      "ври": 2498,
      "месе": 2499,
      "working": 2500,
      "ants": 2501,
      "cho": 2502,
      "всеки": 2503,
      "air": 2504,
      "ru": 2505,
      "нару": 2506,
      "while": 2507,
      "land": 2508,
      "вка": 2509,
      "What": 2510,
      "вото": 2511,
      "ises": 2512,
      "подходя": 2513,
      "significant": 2514,
      "Rom": 2515,
      "акти": 2516,
      "обх": 2517,
      "exist": 2518,
      "колкото": 2519,
      "бу": 2520,
      "вието": 2521,
      "партньор": 2522,
      "ness": 2523,
      "телства": 2524,
      "ханиз": 2525,
      "състоя": 2526,
      "станови": 2527,
      "ety": 2528,
      "Раз": 2529,
      "друга": 2530,
      "Ag": 2531,
      "рати": 2532,
      "oc": 2533,
      "рят": 2534,
      "transparen": 2535,
      "proposals": 2536,
      "ият": 2537,
      "net": 2538,
      "нем": 2539,
      "2011": 2540,
      "sequ": 2541,
      "ident": 2542,
      "word": 2543,
      "високо": 2544,
      "вътреш": 2545,
      "Rus": 2546,
      "хи": 2547,
      "бюджет": 2548,
      "gen": 2549,
      "responsibility": 2550,
      "success": 2551,
      "Russi": 2552,
      "Comm": 2553,
      "временно": 2554,
      "compan": 2555,
      "дим": 2556,
      "accept": 2557,
      "граждан": 2558,
      "fight": 2559,
      "спомена": 2560,
      "bil": 2561,
      "плаща": 2562,
      "сбли": 2563,
      "cas": 2564,
      "ges": 2565,
      "перио": 2566,
      "exp": 2567,
      "atives": 2568,
      "show": 2569,
      "manage": 2570,
      "създаването": 2571,
      "democracy": 2572,
      "лния": 2573,
      "съв": 2574,
      "workers": 2575,
      "ually": 2576,
      "искаме": 2577,
      "говорите": 2578,
      "финансиране": 2579,
      "jobs": 2580,
      "resul": 2581,
      "механиз": 2582,
      "efforts": 2583,
      "aw": 2584,
      "opinion": 2585,
      "done": 2586,
      "напълно": 2587,
      "заето": 2588,
      "различни": 2589,
      "важна": 2590,
      "data": 2591,
      "диа": 2592,
      "subject": 2593,
      "против": 2594,
      "света": 2595,
      "government": 2596,
      "50": 2597,
      "tic": 2598,
      "комисията": 2599,
      "ъж": 2600,
      "глоба": 2601,
      "colle": 2602,
      "дви": 2603,
      "поръ": 2604,
      "ситуа": 2605,
      "протоко": 2606,
      "голямо": 2607,
      "standards": 2608,
      "whole": 2609,
      "three": 2610,
      "ily": 2611,
      "техно": 2612,
      "околната": 2613,
      "правят": 2614,
      "финансова": 2615,
      "ог": 2616,
      "educ": 2617,
      "често": 2618,
      "растеж": 2619,
      "ft": 2620,
      "nat": 2621,
      "изне": 2622,
      "coord": 2623,
      "правя": 2624,
      "важен": 2625,
      "ences": 2626,
      "amb": 2627,
      "две": 2628,
      "край": 2629,
      "thank": 2630,
      "благодаря": 2631,
      "affe": 2632,
      "хте": 2633,
      "minis": 2634,
      "данни": 2635,
      "напредък": 2636,
      "образова": 2637,
      "гре": 2638,
      "лим": 2639,
      "half": 2640,
      "всяка": 2641,
      "вния": 2642,
      "really": 2643,
      "забра": 2644,
      "вени": 2645,
      "regions": 2646,
      "ven": 2647,
      "хвър": 2648,
      "транспорт": 2649,
      "money": 2650,
      "вклю": 2651,
      "safety": 2652,
      "hesion": 2653,
      "гото": 2654,
      "допълните": 2655,
      "ists": 2656,
      "few": 2657,
      "своите": 2658,
      ").": 2659,
      "тво": 2660,
      "These": 2661,
      "enter": 2662,
      "изве": 2663,
      "раме": 2664,
      "assist": 2665,
      "енергия": 2666,
      "attention": 2667,
      "top": 2668,
      "председателство": 2669,
      "блю": 2670,
      "регу": 2671,
      "фика": 2672,
      "democratic": 2673,
      "objectives": 2674,
      "commun": 2675,
      "second": 2676,
      "pur": 2677,
      "предложения": 2678,
      "lim": 2679,
      "бюджета": 2680,
      "control": 2681,
      "ech": 2682,
      "обща": 2683,
      "какви": 2684,
      "sustainable": 2685,
      "сп": 2686,
      "prevent": 2687,
      "пови": 2688,
      "присъеди": 2689,
      "именно": 2690,
      "последните": 2691,
      "ca": 2692,
      "pose": 2693,
      "услуги": 2694,
      "var": 2695,
      "сила": 2696,
      "вижда": 2697,
      "industry": 2698,
      "ric": 2699,
      "Бе": 2700,
      "крайна": 2701,
      "look": 2702,
      "14": 2703,
      "ivid": 2704,
      "Tur": 2705,
      "direct": 2706,
      "ilit": 2707,
      "selves": 2708,
      "фун": 2709,
      "down": 2710,
      "националните": 2711,
      "контрол": 2712,
      "изменението": 2713,
      "юза": 2714,
      "представлява": 2715,
      "children": 2716,
      "принцип": 2717,
      "vil": 2718,
      "conclu": 2719,
      "било": 2720,
      "смет": 2721,
      "wish": 2722,
      "селскостопан": 2723,
      "икономика": 2724,
      "tun": 2725,
      "innov": 2726,
      "друже": 2727,
      "agricultural": 2728,
      "бързо": 2729,
      "Съюза": 2730,
      "нат": 2731,
      "interests": 2732,
      "възстановя": 2733,
      "agreements": 2734,
      "процес": 2735,
      "правото": 2736,
      "adv": 2737,
      "society": 2738,
      "companies": 2739,
      "ought": 2740,
      "promis": 2741,
      "his": 2742,
      "заедно": 2743,
      "направим": 2744,
      "съжаление": 2745,
      "стри": 2746,
      "членове": 2747,
      "сло": 2748,
      "приветства": 2749,
      "ар": 2750,
      "беле": 2751,
      "expect": 2752,
      "развитието": 2753,
      "internal": 2754,
      "recogn": 2755,
      "life": 2756,
      "икономическа": 2757,
      "lab": 2758,
      "рланд": 2759,
      "An": 2760,
      "mes": 2761,
      "същото": 2762,
      "според": 2763,
      "земе": 2764,
      "Ar": 2765,
      "become": 2766,
      "cult": 2767,
      "необходимостта": 2768,
      "har": 2769,
      "pass": 2770,
      "poin": 2771,
      "encoura": 2772,
      "off": 2773,
      "последи": 2774,
      "build": 2775,
      "съдържа": 2776,
      "increasing": 2777,
      "nership": 2778,
      "environmental": 2779,
      "understand": 2780,
      "конкретно": 2781,
      "civil": 2782,
      "добри": 2783,
      "hold": 2784,
      "промишле": 2785,
      "Искам": 2786,
      "House": 2787,
      "did": 2788,
      "ged": 2789,
      "огро": 2790,
      "ад": 2791,
      "..": 2792,
      "clearly": 2793,
      "създаде": 2794,
      "пома": 2795,
      "times": 2796,
      "вах": 2797,
      "положението": 2798,
      "mind": 2799,
      "defin": 2800,
      "pop": 2801,
      "борбата": 2802,
      "achiev": 2803,
      "Is": 2804,
      "пита": 2805,
      "търговия": 2806,
      "допри": 2807,
      "mechan": 2808,
      "gue": 2809,
      "счита": 2810,
      "явле": 2811,
      "доку": 2812,
      "изразя": 2813,
      "speak": 2814,
      "address": 2815,
      "turn": 2816,
      "side": 2817,
      "fail": 2818,
      "промени": 2819,
      "cut": 2820,
      "rece": 2821,
      "sc": 2822,
      "They": 2823,
      "солида": 2824,
      "Но": 2825,
      "наблю": 2826,
      "ffic": 2827,
      "ging": 2828,
      "изгот": 2829,
      "орди": 2830,
      "рните": 2831,
      "ternal": 2832,
      "сближаване": 2833,
      "искала": 2834,
      "ник": 2835,
      "области": 2836,
      "няване": 2837,
      "30": 2838,
      "principle": 2839,
      "мър": 2840,
      "ances": 2841,
      "ples": 2842,
      "помогне": 2843,
      "proper": 2844,
      "programme": 2845,
      "least": 2846,
      "focus": 2847,
      "опит": 2848,
      "обя": 2849,
      "month": 2850,
      "appropri": 2851,
      "заседа": 2852,
      "важни": 2853,
      "съвет": 2854,
      "comes": 2855,
      "участи": 2856,
      "нами": 2857,
      "рамка": 2858,
      "Therefore": 2859,
      "ank": 2860,
      "risk": 2861,
      "технологи": 2862,
      "елект": 2863,
      "мла": 2864,
      "опаз": 2865,
      "ам": 2866,
      "противо": 2867,
      "demand": 2868,
      "рява": 2869,
      "inclu": 2870,
      "erv": 2871,
      "независимо": 2872,
      "Fin": 2873,
      "No": 2874,
      "mber": 2875,
      "дре": 2876,
      "коорди": 2877,
      "positive": 2878,
      "iveness": 2879,
      "където": 2880,
      "ресурси": 2881,
      "lack": 2882,
      "трети": 2883,
      "твърде": 2884,
      "фонд": 2885,
      "работата": 2886,
      "extre": 2887,
      "мах": 2888,
      "treat": 2889,
      "uclear": 2890,
      "инова": 2891,
      "общ": 2892,
      "ck": 2893,
      "стре": 2894,
      "applic": 2895,
      "усия": 2896,
      "мятам": 2897,
      "причина": 2898,
      "ath": 2899,
      "Гласувах": 2900,
      "кси": 2901,
      "винаги": 2902,
      "among": 2903,
      "les": 2904,
      "извън": 2905,
      "чното": 2906,
      "политики": 2907,
      "али": 2908,
      "насе": 2909,
      "period": 2910,
      "consumers": 2911,
      "techno": 2912,
      "actions": 2913,
      "create": 2914,
      "Ме": 2915,
      "вим": 2916,
      "обсъжда": 2917,
      "cohesion": 2918,
      "relation": 2919,
      "farm": 2920,
      "целия": 2921,
      "престъп": 2922,
      "ified": 2923,
      "something": 2924,
      "групата": 2925,
      "education": 2926,
      "диск": 2927,
      "функ": 2928,
      "ливо": 2929,
      "балан": 2930,
      "стратегията": 2931,
      "another": 2932,
      "icip": 2933,
      "bour": 2934,
      "ung": 2935,
      "СА": 2936,
      "protect": 2937,
      "Bar": 2938,
      "always": 2939,
      "подкрепи": 2940,
      "усилия": 2941,
      "мл": 2942,
      "mee": 2943,
      "cu": 2944,
      "еко": 2945,
      "vic": 2946,
      "спаз": 2947,
      "guarantee": 2948,
      "sen": 2949,
      "просто": 2950,
      "ME": 2951,
      "prof": 2952,
      "general": 2953,
      "отговор": 2954,
      "regional": 2955,
      "достатъчно": 2956,
      "САЩ": 2957,
      "жени": 2958,
      "стандарти": 2959,
      "ade": 2960,
      "ages": 2961,
      "мни": 2962,
      "тай": 2963,
      "рение": 2964,
      "deed": 2965,
      "close": 2966,
      "жно": 2967,
      "спекти": 2968,
      "EC": 2969,
      "разпоред": 2970,
      "намаляване": 2971,
      "Ще": 2972,
      "прилагането": 2973,
      "рак": 2974,
      "ick": 2975,
      "премах": 2976,
      "разход": 2977,
      "currently": 2978,
      "Ки": 2979,
      "ори": 2980,
      "individ": 2981,
      "systems": 2982,
      "solution": 2983,
      "разполага": 2984,
      "центра": 2985,
      "граф": 2986,
      "initiative": 2987,
      "solidarity": 2988,
      "производите": 2989,
      "assess": 2990,
      "вани": 2991,
      "съби": 2992,
      "Community": 2993,
      "нати": 2994,
      "proposed": 2995,
      "def": 2996,
      "relations": 2997,
      "жат": 2998,
      "Русия": 2999,
      "въпреки": 3000,
      "лица": 3001,
      "укре": 3002,
      "happen": 3003,
      "developing": 3004,
      "законодателство": 3005,
      "рма": 3006,
      "management": 3007,
      "таки": 3008,
      "ently": 3009,
      "aster": 3010,
      "ever": 3011,
      "шите": 3012,
      "Поради": 3013,
      "доведе": 3014,
      "12": 3015,
      "разши": 3016,
      "ining": 3017,
      "жерт": 3018,
      "short": 3019,
      "широ": 3020,
      "aware": 3021,
      "чната": 3022,
      "пад": 3023,
      "lines": 3024,
      "ral": 3025,
      "ear": 3026,
      "големи": 3027,
      "best": 3028,
      "eld": 3029,
      "писме": 3030,
      "Russia": 3031,
      "ify": 3032,
      "nuclear": 3033,
      "overn": 3034,
      "Като": 3035,
      "Gree": 3036,
      "отв": 3037,
      "дение": 3038,
      "процеса": 3039,
      "лип": 3040,
      "once": 3041,
      "itself": 3042,
      "служ": 3043,
      "голям": 3044,
      "eas": 3045,
      "правед": 3046,
      "отда": 3047,
      "тия": 3048,
      "възможността": 3049,
      "avail": 3050,
      "itor": 3051,
      "нос": 3052,
      "помага": 3053,
      "war": 3054,
      "del": 3055,
      "гори": 3056,
      "ферен": 3057,
      "ези": 3058,
      "emphas": 3059,
      "тък": 3060,
      "европейска": 3061,
      "стабилност": 3062,
      "individual": 3063,
      "things": 3064,
      "vention": 3065,
      "gest": 3066,
      "справед": 3067,
      "concerned": 3068,
      "стратеги": 3069,
      "включва": 3070,
      "тоспособ": 3071,
      "чението": 3072,
      "резолюцията": 3073,
      "extreme": 3074,
      "wee": 3075,
      "игра": 3076,
      "ува": 3077,
      "ensive": 3078,
      "non": 3079,
      "правила": 3080,
      "засегна": 3081,
      "fortun": 3082,
      "изследва": 3083,
      "draw": 3084,
      "Govern": 3085,
      "single": 3086,
      "води": 3087,
      "fl": 3088,
      "full": 3089,
      "aly": 3090,
      "целите": 3091,
      "ased": 3092,
      "concerns": 3093,
      "challeng": 3094,
      "източни": 3095,
      "правени": 3096,
      "постигнем": 3097,
      "various": 3098,
      "meeting": 3099,
      "improv": 3100,
      "funding": 3101,
      "inst": 3102,
      "Minutes": 3103,
      "дек": 3104,
      "съответствие": 3105,
      "правителство": 3106,
      "let": 3107,
      "раст": 3108,
      "предприема": 3109,
      "ann": 3110,
      "Както": 3111,
      "икономическо": 3112,
      "Тур": 3113,
      "fam": 3114,
      "крити": 3115,
      "pover": 3116,
      "jective": 3117,
      "споразумението": 3118,
      "разгледа": 3119,
      "новите": 3120,
      "ings": 3121,
      "experi": 3122,
      "европейско": 3123,
      "each": 3124,
      "consequ": 3125,
      "техните": 3126,
      "mor": 3127,
      "often": 3128,
      "преговорите": 3129,
      "ogue": 3130,
      "финансовите": 3131,
      "шното": 3132,
      "лението": 3133,
      "вед": 3134,
      "нея": 3135,
      "markets": 3136,
      "strateg": 3137,
      "наде": 3138,
      "cies": 3139,
      "oung": 3140,
      "програма": 3141,
      "конкурентоспособ": 3142,
      "момент": 3143,
      "седми": 3144,
      "groups": 3145,
      "мери": 3146,
      "възможности": 3147,
      "Se": 3148,
      "тели": 3149,
      "ствени": 3150,
      "случаи": 3151,
      "съгласи": 3152,
      "US": 3153,
      "опе": 3154,
      "ряването": 3155,
      "cru": 3156,
      "зачита": 3157,
      "supp": 3158,
      "mer": 3159,
      "production": 3160,
      "investment": 3161,
      "poverty": 3162,
      "bod": 3163,
      "икономическата": 3164,
      "чевид": 3165,
      "istic": 3166,
      "Reg": 3167,
      "labour": 3168,
      "Пър": 3169,
      "ror": 3170,
      "оне": 3171,
      "фри": 3172,
      "states": 3173,
      "шето": 3174,
      "involved": 3175,
      "пет": 3176,
      "Предсе": 3177,
      "15": 3178,
      "2007": 3179,
      "Government": 3180,
      "Part": 3181,
      "нито": 3182,
      "споразумения": 3183,
      "обър": 3184,
      "свободата": 3185,
      "използват": 3186,
      "Сега": 3187,
      "2013": 3188,
      "съвмест": 3189,
      "border": 3190,
      "PL": 3191,
      "групи": 3192,
      "programmes": 3193,
      "чност": 3194,
      "такива": 3195,
      "anim": 3196,
      "commend": 3197,
      "legislative": 3198,
      "текст": 3199,
      "започ": 3200,
      "You": 3201,
      "projects": 3202,
      "ES": 3203,
      "зада": 3204,
      "общност": 3205,
      "context": 3206,
      "пуска": 3207,
      "Pol": 3208,
      "насили": 3209,
      "финансовата": 3210,
      "structure": 3211,
      "young": 3212,
      "Str": 3213,
      "истин": 3214,
      "cession": 3215,
      "assistance": 3216,
      "вж": 3217,
      "inal": 3218,
      "pack": 3219,
      "бре": 3220,
      "yet": 3221,
      "райони": 3222,
      "запла": 3223,
      "състояние": 3224,
      "бата": 3225,
      "полза": 3226,
      "емиси": 3227,
      "преговори": 3228,
      "цин": 3229,
      "продължи": 3230,
      "accord": 3231,
      "мули": 3232,
      "оценка": 3233,
      "колеги": 3234,
      "вза": 3235,
      "избо": 3236,
      "ians": 3237,
      "позиция": 3238,
      "жения": 3239,
      "particip": 3240,
      "развива": 3241,
      "majority": 3242,
      "costs": 3243,
      "using": 3244,
      "pot": 3245,
      "разглежда": 3246,
      "малките": 3247,
      "objective": 3248,
      "заси": 3249,
      "предотв": 3250,
      "'.": 3251,
      "challenges": 3252,
      "заклю": 3253,
      "здраве": 3254,
      "local": 3255,
      "responsible": 3256,
      "значите": 3257,
      "мог": 3258,
      "having": 3259,
      "following": 3260,
      "ministr": 3261,
      "available": 3262,
      "pat": 3263,
      "писмена": 3264,
      "den": 3265,
      "пъ": 3266,
      "циони": 3267,
      "дългосро": 3268,
      "To": 3269,
      "found": 3270,
      "чаването": 3271,
      "диало": 3272,
      "Hung": 3273,
      "Че": 3274,
      "дно": 3275,
      "monitor": 3276,
      "зиране": 3277,
      "проект": 3278,
      "ference": 3279,
      "ivers": 3280,
      "old": 3281,
      "ister": 3282,
      "Ми": 3283,
      "victim": 3284,
      "лността": 3285,
      "зая": 3286,
      "разходи": 3287,
      "чават": 3288,
      "СП": 3289,
      "веро": 3290,
      "гледна": 3291,
      "интер": 3292,
      "words": 3293,
      "Турция": 3294,
      "вното": 3295,
      "her": 3296,
      "aspect": 3297,
      "rather": 3298,
      "сигурността": 3299,
      "complete": 3300,
      "паке": 3301,
      "Той": 3302,
      "ead": 3303,
      "препоръ": 3304,
      "actually": 3305,
      "нове": 3306,
      "priority": 3307,
      "results": 3308,
      "tle": 3309,
      "Европейски": 3310,
      "Над": 3311,
      "отговаря": 3312,
      "беля": 3313,
      "Вие": 3314,
      "discrim": 3315,
      "trad": 3316,
      "гласуване": 3317,
      "transparency": 3318,
      "сметка": 3319,
      "dial": 3320,
      "нищо": 3321,
      "извърш": 3322,
      "Turkey": 3323,
      "финансови": 3324,
      "определени": 3325,
      "violence": 3326,
      "With": 3327,
      "priv": 3328,
      "редица": 3329,
      "инструмент": 3330,
      "отношения": 3331,
      "ible": 3332,
      "docu": 3333,
      "ina": 3334,
      "осигури": 3335,
      "храните": 3336,
      "ней": 3337,
      "stress": 3338,
      "проведе": 3339,
      "joint": 3340,
      "procedure": 3341,
      "share": 3342,
      "прилагане": 3343,
      "FR": 3344,
      "годиш": 3345,
      "гласувах": 3346,
      "Cour": 3347,
      "equ": 3348,
      "Ня": 3349,
      "глежда": 3350,
      "integration": 3351,
      "appropriate": 3352,
      "били": 3353,
      "Court": 3354,
      "Dire": 3355,
      "enterpr": 3356,
      "сля": 3357,
      "реши": 3358,
      "откри": 3359,
      "яване": 3360,
      "though": 3361,
      "зае": 3362,
      "commitment": 3363,
      "principles": 3364,
      "админи": 3365,
      "27": 3366,
      "риз": 3367,
      "ago": 3368,
      "beg": 3369,
      "ably": 3370,
      "instruments": 3371,
      "интерес": 3372,
      "atory": 3373,
      "чения": 3374,
      "fel": 3375,
      "needed": 3376,
      "cise": 3377,
      "осъ": 3378,
      "своята": 3379,
      "надявам": 3380,
      "ефективно": 3381,
      "creation": 3382,
      "довери": 3383,
      "амби": 3384,
      "различните": 3385,
      "дискри": 3386,
      "стопанство": 3387,
      "изследвания": 3388,
      "пов": 3389,
      "clar": 3390,
      "общо": 3391,
      "правим": 3392,
      "sid": 3393,
      "осъщест": 3394,
      "стите": 3395,
      "constit": 3396,
      "проекти": 3397,
      "поле": 3398,
      "behalf": 3399,
      "гарантираме": 3400,
      "governance": 3401,
      "онези": 3402,
      "peace": 3403,
      "administr": 3404,
      "думи": 3405,
      "apply": 3406,
      "dialogue": 3407,
      "ници": 3408,
      "довател": 3409,
      "поставя": 3410,
      "unt": 3411,
      "зася": 3412,
      "възстановяване": 3413,
      "моби": 3414,
      "извест": 3415,
      "Ди": 3416,
      "освобо": 3417,
      "семе": 3418,
      "фондове": 3419,
      "fortunately": 3420,
      "ника": 3421,
      "keep": 3422,
      "posed": 3423,
      "въпросите": 3424,
      "values": 3425,
      "ators": 3426,
      "пари": 3427,
      "active": 3428,
      "Кон": 3429,
      "effect": 3430,
      "защитата": 3431,
      "Всич": 3432,
      "мор": 3433,
      "parliament": 3434,
      "sever": 3435,
      "benefit": 3436,
      "stability": 3437,
      "електро": 3438,
      "ческите": 3439,
      "чевидно": 3440,
      "Също": 3441,
      "подчертая": 3442,
      "efficiency": 3443,
      "independ": 3444,
      "новя": 3445,
      "intend": 3446,
      "теро": 3447,
      "extremely": 3448,
      "общата": 3449,
      "Следователно": 3450,
      "kind": 3451,
      "Мно": 3452,
      "бера": 3453,
      "cases": 3454,
      "равно": 3455,
      "sim": 3456,
      "аген": 3457,
      "обу": 3458,
      "mean": 3459,
      "чув": 3460,
      "appe": 3461,
      "стъпка": 3462,
      "billion": 3463,
      "dom": 3464,
      "вер": 3465,
      "conflic": 3466,
      "тата": 3467,
      "crucial": 3468,
      "recommend": 3469,
      "lies": 3470,
      "инструменти": 3471,
      "promote": 3472,
      "точно": 3473,
      "ал": 3474,
      "oub": 3475,
      "ляне": 3476,
      "гава": 3477,
      "фра": 3478,
      "competition": 3479,
      "рът": 3480,
      "системи": 3481,
      "администра": 3482,
      "lan": 3483,
      "list": 3484,
      "rele": 3485,
      "review": 3486,
      "due": 3487,
      "ification": 3488,
      "points": 3489,
      "членовете": 3490,
      "името": 3491,
      "мати": 3492,
      "партньорство": 3493,
      "package": 3494,
      "reduce": 3495,
      "Afric": 3496,
      "Li": 3497,
      "stat": 3498,
      "decisions": 3499,
      "name": 3500,
      "семей": 3501,
      "Дне": 3502,
      "региони": 3503,
      "позволи": 3504,
      "liber": 3505,
      "Тези": 3506,
      "months": 3507,
      "оглед": 3508,
      "риба": 3509,
      "десе": 3510,
      "продължава": 3511,
      "migration": 3512,
      "тиране": 3513,
      "ляват": 3514,
      "institution": 3515,
      "крат": 3516,
      "щността": 3517,
      "Как": 3518,
      "Let": 3519,
      "ling": 3520,
      "изпра": 3521,
      "членка": 3522,
      "практика": 3523,
      "живе": 3524,
      "Го": 3525,
      "всъщност": 3526,
      "мре": 3527,
      "ефективност": 3528,
      "innovation": 3529,
      "взаи": 3530,
      "дът": 3531,
      "пак": 3532,
      "бива": 3533,
      "medium": 3534,
      "участ": 3535,
      "реформи": 3536,
      "ceed": 3537,
      "едине": 3538,
      "имигра": 3539,
      "чния": 3540,
      "maintain": 3541,
      "called": 3542,
      "farmers": 3543,
      "место": 3544,
      "ger": 3545,
      "показа": 3546,
      "amendments": 3547,
      "функциони": 3548,
      "мнение": 3549,
      "равен": 3550,
      "offic": 3551,
      "che": 3552,
      "Тя": 3553,
      "получи": 3554,
      "activities": 3555,
      "дискримина": 3556,
      "enterprises": 3557,
      "ОО": 3558,
      "head": 3559,
      "мнози": 3560,
      "field": 3561,
      "provided": 3562,
      "simply": 3563,
      "солидарност": 3564,
      "siz": 3565,
      "всем": 3566,
      "политическа": 3567,
      "исто": 3568,
      "нет": 3569,
      "общество": 3570,
      "ania": 3571,
      "сата": 3572,
      "enda": 3573,
      "oblig": 3574,
      "bur": 3575,
      "ication": 3576,
      "изменение": 3577,
      "очаква": 3578,
      "seen": 3579,
      "докато": 3580,
      "ighbour": 3581,
      "причини": 3582,
      "mentioned": 3583,
      "ядре": 3584,
      "чена": 3585,
      "чено": 3586,
      "amoun": 3587,
      "конкретни": 3588,
      "постоя": 3589,
      "several": 3590,
      "parties": 3591,
      "foreign": 3592,
      "постигане": 3593,
      "лство": 3594,
      "nor": 3595,
      "rev": 3596,
      "мани": 3597,
      "terror": 3598,
      "рландия": 3599,
      "пус": 3600,
      "ret": 3601,
      "Bel": 3602,
      "двете": 3603,
      "запа": 3604,
      "пара": 3605,
      "пер": 3606,
      "ove": 3607,
      "меди": 3608,
      "ностите": 3609,
      "подобряване": 3610,
      "конф": 3611,
      "population": 3612,
      "irst": 3613,
      "правилно": 3614,
      "протокола": 3615,
      "свят": 3616,
      "regarding": 3617,
      "започна": 3618,
      "инициатива": 3619,
      "ron": 3620,
      "ses": 3621,
      "създаване": 3622,
      "ООН": 3623,
      "First": 3624,
      "вла": 3625,
      "Ха": 3626,
      "special": 3627,
      "feel": 3628,
      "вземе": 3629,
      "demon": 3630,
      "ември": 3631,
      "industri": 3632,
      "земедел": 3633,
      "догово": 3634,
      "concerning": 3635,
      "fairs": 3636,
      "жава": 3637,
      "председате": 3638,
      "include": 3639,
      "Ri": 3640,
      "ел": 3641,
      "Под": 3642,
      "Са": 3643,
      "emo": 3644,
      "накрая": 3645,
      "carri": 3646,
      "лията": 3647,
      "екологи": 3648,
      "emis": 3649,
      "знаем": 3650,
      "ръко": 3651,
      "void": 3652,
      "шаване": 3653,
      "victims": 3654,
      "ton": 3655,
      "ined": 3656,
      "поддържа": 3657,
      "competit": 3658,
      "изпълнението": 3659,
      "wers": 3660,
      "changes": 3661,
      "response": 3662,
      "зиден": 3663,
      "compromis": 3664,
      "конфли": 3665,
      "fisher": 3666,
      "threat": 3667,
      "интегра": 3668,
      "избе": 3669,
      "зоната": 3670,
      "добра": 3671,
      "Вто": 3672,
      "consequences": 3673,
      "пят": 3674,
      "поч": 3675,
      "questions": 3676,
      "безопасност": 3677,
      "оце": 3678,
      "настояще": 3679,
      "25": 3680,
      "кро": 3681,
      "quick": 3682,
      "minor": 3683,
      "бъдещето": 3684,
      "eria": 3685,
      "прием": 3686,
      "публика": 3687,
      "strict": 3688,
      "пенси": 3689,
      "сериозно": 3690,
      "приоритет": 3691,
      "RO": 3692,
      "Sp": 3693,
      "jud": 3694,
      "страните": 3695,
      "необходими": 3696,
      "инвестиции": 3697,
      "Много": 3698,
      "Според": 3699,
      "Този": 3700,
      "ският": 3701,
      "link": 3702,
      "директива": 3703,
      "През": 3704,
      "дости": 3705,
      "транс": 3706,
      "Пра": 3707,
      "загу": 3708,
      "проу": 3709,
      "вероят": 3710,
      "avoid": 3711,
      "прево": 3712,
      "seem": 3713,
      "вият": 3714,
      "ave": 3715,
      "reen": 3716,
      "критери": 3717,
      "businesses": 3718,
      "ither": 3719,
      "tes": 3720,
      "наказа": 3721,
      "мяна": 3722,
      "Необходи": 3723,
      "директивата": 3724,
      "instrument": 3725,
      "hist": 3726,
      "мони": 3727,
      "doing": 3728,
      "каква": 3729,
      "iter": 3730,
      "governments": 3731,
      "програми": 3732,
      "constru": 3733,
      "креди": 3734,
      "работници": 3735,
      "pleased": 3736,
      "kes": 3737,
      "Гър": 3738,
      "страната": 3739,
      "Ра": 3740,
      "налага": 3741,
      "решава": 3742,
      "спи": 3743,
      "unities": 3744,
      "certainly": 3745,
      "integr": 3746,
      "положите": 3747,
      "кото": 3748,
      "регион": 3749,
      "gas": 3750,
      "ight": 3751,
      "бъдем": 3752,
      "действите": 3753,
      "Все": 3754,
      "face": 3755,
      "сектора": 3756,
      "Между": 3757,
      "Гърция": 3758,
      "нени": 3759,
      "доба": 3760,
      "съгласно": 3761,
      "suring": 3762,
      "Greece": 3763,
      "Надявам": 3764,
      "ета": 3765,
      "полага": 3766,
      "fle": 3767,
      "ческа": 3768,
      "нят": 3769,
      "своя": 3770,
      "труда": 3771,
      "Finally": 3772,
      "mult": 3773,
      "харак": 3774,
      "subst": 3775,
      "рано": 3776,
      "моята": 3777,
      "действието": 3778,
      "soon": 3779,
      "firm": 3780,
      "закон": 3781,
      "достав": 3782,
      "тенциа": 3783,
      "убежи": 3784,
      "plac": 3785,
      "aged": 3786,
      "демокрацията": 3787,
      "енергийната": 3788,
      "технологии": 3789,
      "potential": 3790,
      "вена": 3791,
      "виде": 3792,
      "значително": 3793,
      "absol": 3794,
      "участие": 3795,
      "другите": 3796,
      "Общността": 3797,
      "begin": 3798,
      "рана": 3799,
      "гария": 3800,
      "подпомага": 3801,
      "мисля": 3802,
      "икономиката": 3803,
      "зва": 3804,
      "request": 3805,
      "зор": 3806,
      "anced": 3807,
      "прео": 3808,
      "гнат": 3809,
      "разходите": 3810,
      "употре": 3811,
      "ниците": 3812,
      "enough": 3813,
      "itarian": 3814,
      "либера": 3815,
      "разискването": 3816,
      "increased": 3817,
      "потенциа": 3818,
      "grant": 3819,
      "риск": 3820,
      "съвсем": 3821,
      "съществено": 3822,
      "регули": 3823,
      "жително": 3824,
      "true": 3825,
      "работят": 3826,
      "свобода": 3827,
      "средствата": 3828,
      "настоящем": 3829,
      "телни": 3830,
      "quite": 3831,
      "среща": 3832,
      "връща": 3833,
      "Така": 3834,
      "организации": 3835,
      "Директи": 3836,
      "споде": 3837,
      "правомо": 3838,
      "очак": 3839,
      "кции": 3840,
      "проблема": 3841,
      "казват": 3842,
      "Artic": 3843,
      "competitiveness": 3844,
      "orig": 3845,
      "ale": 3846,
      "настоящата": 3847,
      "absolute": 3848,
      "мога": 3849,
      "стане": 3850,
      "above": 3851,
      "хар": 3852,
      "използването": 3853,
      "минист": 3854,
      "targe": 3855,
      "entire": 3856,
      "теж": 3857,
      "ново": 3858,
      "regulations": 3859,
      "техни": 3860,
      "усилията": 3861,
      "organis": 3862,
      "ners": 3863,
      "unction": 3864,
      "final": 3865,
      "приети": 3866,
      "няването": 3867,
      "сътрудничеството": 3868,
      "procedures": 3869,
      "emer": 3870,
      "изменения": 3871,
      "еврозоната": 3872,
      "милиона": 3873,
      "Agree": 3874,
      "achieved": 3875,
      "never": 3876,
      "факт": 3877,
      "requirements": 3878,
      "брой": 3879,
      "приемането": 3880,
      "existing": 3881,
      "диалог": 3882,
      "Rights": 3883,
      "Rep": 3884,
      "кия": 3885,
      "условията": 3886,
      "малцин": 3887,
      "период": 3888,
      "Directive": 3889,
      "territ": 3890,
      "Докла": 3891,
      "longer": 3892,
      "биха": 3893,
      "успя": 3894,
      "подкрепата": 3895,
      "mom": 3896,
      "respond": 3897,
      "остана": 3898,
      "президен": 3899,
      "насърчаване": 3900,
      "кажем": 3901,
      "Republic": 3902,
      "rate": 3903,
      "Да": 3904,
      "отколкото": 3905,
      "принципа": 3906,
      "reasons": 3907,
      "idence": 3908,
      "говорим": 3909,
      "обез": 3910,
      "ложени": 3911,
      "ролята": 3912,
      "pt": 3913,
      "2006": 3914,
      "подкрепям": 3915,
      "priorities": 3916,
      "He": 3917,
      "previous": 3918,
      "capital": 3919,
      "mechanism": 3920,
      "Председател": 3921,
      "човеш": 3922,
      "бия": 3923,
      "стен": 3924,
      "acceptable": 3925,
      "приветствам": 3926,
      "укреп": 3927,
      "профе": 3928,
      "кате": 3929,
      "дото": 3930,
      "основни": 3931,
      "opportunities": 3932,
      "средство": 3933,
      "equal": 3934,
      "financing": 3935,
      "wast": 3936,
      "уле": 3937,
      "държавата": 3938,
      "правилата": 3939,
      "целта": 3940,
      "techn": 3941,
      "Demo": 3942,
      "изявле": 3943,
      "фраструкту": 3944,
      "маща": 3945,
      "themselves": 3946,
      "све": 3947,
      "imum": 3948,
      "бедността": 3949,
      "качеството": 3950,
      "Secon": 3951,
      "Афри": 3952,
      "Social": 3953,
      "discrimination": 3954,
      "Second": 3955,
      "ensuring": 3956,
      "кова": 3957,
      "amp": 3958,
      "istan": 3959,
      "others": 3960,
      "value": 3961,
      "application": 3962,
      "external": 3963,
      "регламент": 3964,
      "лъ": 3965,
      "ateral": 3966,
      "петен": 3967,
      "единстве": 3968,
      "европейския": 3969,
      "докладчика": 3970,
      "living": 3971,
      "matters": 3972,
      "инфраструкту": 3973,
      "tail": 3974,
      "зу": 3975,
      "зни": 3976,
      "деца": 3977,
      "uses": 3978,
      "превър": 3979,
      "приклю": 3980,
      "сам": 3981,
      "encies": 3982,
      "Тази": 3983,
      "fellow": 3984,
      "broad": 3985,
      "cal": 3986,
      "tar": 3987,
      "Де": 3988,
      "нов": 3989,
      "социални": 3990,
      "Ger": 3991,
      "поне": 3992,
      "затова": 3993,
      "accession": 3994,
      "проблемите": 3995,
      "Minister": 3996,
      "elections": 3997,
      "sul": 3998,
      "liance": 3999,
      "aimed": 4000,
      "moment": 4001,
      "консу": 4002,
      "общи": 4003,
      "approv": 4004,
      "устойчиво": 4005,
      "промишленост": 4006,
      "рени": 4007,
      "illegal": 4008,
      "Inter": 4009,
      "компетен": 4010,
      "внесе": 4011,
      "гъ": 4012,
      "предложи": 4013,
      "contain": 4014,
      "чите": 4015,
      "зако": 4016,
      "рист": 4017,
      "vere": 4018,
      "опас": 4019,
      "предизвикател": 4020,
      "additional": 4021,
      "такъв": 4022,
      "социално": 4023,
      "sitting": 4024,
      "незакон": 4025,
      "Ин": 4026,
      "agreed": 4027,
      "няват": 4028,
      "боло": 4029,
      "ключо": 4030,
      "encourage": 4031,
      "emissions": 4032,
      "conne": 4033,
      "работим": 4034,
      "idea": 4035,
      "Във": 4036,
      "talk": 4037,
      "Китай": 4038,
      "интернет": 4039,
      "11": 4040,
      "hon": 4041,
      "infra": 4042,
      "ствия": 4043,
      "consist": 4044,
      "suffici": 4045,
      "Пре": 4046,
      "неща": 4047,
      "partnership": 4048,
      "представител": 4049,
      "required": 4050,
      "cure": 4051,
      "нство": 4052,
      "парламента": 4053,
      "Article": 4054,
      "опро": 4055,
      "стои": 4056,
      "across": 4057,
      "contribution": 4058,
      "изцяло": 4059,
      "adopt": 4060,
      "вари": 4061,
      "adoption": 4062,
      "haps": 4063,
      "vital": 4064,
      "wa": 4065,
      "extend": 4066,
      "neighbour": 4067,
      "voting": 4068,
      "criteria": 4069,
      "Разбира": 4070,
      "PT": 4071,
      "pite": 4072,
      "sci": 4073,
      "enable": 4074,
      "изглежда": 4075,
      "пазари": 4076,
      "жизне": 4077,
      "чки": 4078,
      "пъти": 4079,
      "hard": 4080,
      "смър": 4081,
      "воен": 4082,
      "социалните": 4083,
      "сми": 4084,
      "deter": 4085,
      "гар": 4086,
      "traffic": 4087,
      "рията": 4088,
      "заетостта": 4089,
      "Днес": 4090,
      "преодо": 4091,
      "past": 4092,
      "тогава": 4093,
      "лиз": 4094,
      "members": 4095,
      "strategic": 4096,
      "immedi": 4097,
      "плани": 4098,
      "talking": 4099,
      "Sw": 4100,
      "прав": 4101,
      "социална": 4102,
      "След": 4103,
      "agriculture": 4104,
      "stud": 4105,
      "съл": 4106,
      "rule": 4107,
      "пло": 4108,
      "риболо": 4109,
      "силно": 4110,
      "случи": 4111,
      "continu": 4112,
      "affected": 4113,
      "Agreement": 4114,
      "ond": 4115,
      "18": 4116,
      "Med": 4117,
      "cross": 4118,
      "dit": 4119,
      "orders": 4120,
      "China": 4121,
      "technolog": 4122,
      "indeed": 4123,
      "contra": 4124,
      "training": 4125,
      "meth": 4126,
      "ived": 4127,
      "представите": 4128,
      "supply": 4129,
      "ари": 4130,
      "lied": 4131,
      "iving": 4132,
      "дейността": 4133,
      "balance": 4134,
      "around": 4135,
      "позицията": 4136,
      "consumer": 4137,
      "stop": 4138,
      "влия": 4139,
      "предизвикателства": 4140,
      "bi": 4141,
      "private": 4142,
      "професи": 4143,
      "разно": 4144,
      "времен": 4145,
      "началото": 4146,
      "убежище": 4147,
      "ЕП": 4148,
      "тна": 4149,
      "plain": 4150,
      "въпросът": 4151,
      "lum": 4152,
      "rup": 4153,
      "ситуация": 4154,
      "нашето": 4155,
      "relating": 4156,
      "засяга": 4157,
      "quickly": 4158,
      "ned": 4159,
      "новата": 4160,
      "приро": 4161,
      "prepare": 4162,
      "along": 4163,
      "сан": 4164,
      "възду": 4165,
      "ground": 4166,
      "Всички": 4167,
      "compromise": 4168,
      "чети": 4169,
      "приемем": 4170,
      "вътрешния": 4171,
      "advant": 4172,
      "cultural": 4173,
      "последици": 4174,
      "flu": 4175,
      "ван": 4176,
      "agenda": 4177,
      "мерките": 4178,
      "използване": 4179,
      "organisations": 4180,
      "40": 4181,
      "thus": 4182,
      "оти": 4183,
      "воде": 4184,
      "live": 4185,
      "supported": 4186,
      "coordination": 4187,
      "зависимо": 4188,
      "искат": 4189,
      "preh": 4190,
      "One": 4191,
      "тор": 4192,
      "опера": 4193,
      "Can": 4194,
      "въздействие": 4195,
      "everyone": 4196,
      "monitoring": 4197,
      "души": 4198,
      "Uk": 4199,
      "рд": 4200,
      "капита": 4201,
      "листи": 4202,
      "решението": 4203,
      "ean": 4204,
      "ot": 4205,
      "отво": 4206,
      "интереси": 4207,
      "текста": 4208,
      "въведе": 4209,
      "practice": 4210,
      "Ukra": 4211,
      "Our": 4212,
      "ator": 4213,
      "cir": 4214,
      "itious": 4215,
      "coordin": 4216,
      "adequ": 4217,
      "tack": 4218,
      "huge": 4219,
      "anu": 4220,
      "разпреде": 4221,
      "знае": 4222,
      "Може": 4223,
      "implemented": 4224,
      "contribute": 4225,
      "UN": 4226,
      "cord": 4227,
      "dest": 4228,
      "влиза": 4229,
      "рка": 4230,
      "назна": 4231,
      "ins": 4232,
      "щият": 4233,
      "amendment": 4234,
      "rist": 4235,
      "Ирландия": 4236,
      "системата": 4237,
      "doub": 4238,
      "кът": 4239,
      "възполз": 4240,
      "regards": 4241,
      "единствено": 4242,
      "Баро": 4243,
      "децата": 4244,
      "char": 4245,
      "постоян": 4246,
      "logy": 4247,
      "provisions": 4248,
      "sized": 4249,
      "urgent": 4250,
      "нуж": 4251,
      "levels": 4252,
      "дружества": 4253,
      "sha": 4254,
      "показва": 4255,
      "факто": 4256,
      "discussion": 4257,
      "carried": 4258,
      "дин": 4259,
      "lling": 4260,
      "вява": 4261,
      "постигането": 4262,
      "вероятно": 4263,
      "Co": 4264,
      "мня": 4265,
      "разпро": 4266,
      "вяме": 4267,
      "икономическото": 4268,
      "abled": 4269,
      "заетост": 4270,
      "More": 4271,
      "renew": 4272,
      "части": 4273,
      "draft": 4274,
      "ата": 4275,
      "erb": 4276,
      "indic": 4277,
      "ценности": 4278,
      "Christ": 4279,
      "fall": 4280,
      "опа": 4281,
      "очевидно": 4282,
      "отбеля": 4283,
      "тивни": 4284,
      "стана": 4285,
      "ters": 4286,
      "гласуването": 4287,
      "демокрация": 4288,
      "Благо": 4289,
      "източници": 4290,
      "mess": 4291,
      "следващите": 4292,
      "providing": 4293,
      "offer": 4294,
      "образи": 4295,
      "makes": 4296,
      "Първо": 4297,
      "зия": 4298,
      "outs": 4299,
      "обили": 4300,
      "тяване": 4301,
      "reduction": 4302,
      "спря": 4303,
      "жде": 4304,
      "сра": 4305,
      "iting": 4306,
      "резултати": 4307,
      "refle": 4308,
      "aspects": 4309,
      "Ру": 4310,
      "гани": 4311,
      "вянето": 4312,
      "Нека": 4313,
      "основава": 4314,
      "сериозни": 4315,
      "механизъм": 4316,
      "ambitious": 4317,
      "простран": 4318,
      "meet": 4319,
      "добър": 4320,
      "199": 4321,
      "ристия": 4322,
      "Благода": 4323,
      "средото": 4324,
      "ционни": 4325,
      "прозрачност": 4326,
      "греш": 4327,
      "Nor": 4328,
      "dist": 4329,
      "чия": 4330,
      "кому": 4331,
      "elect": 4332,
      "единените": 4333,
      "bar": 4334,
      "закри": 4335,
      "възраст": 4336,
      "принципите": 4337,
      "express": 4338,
      "natural": 4339,
      "загри": 4340,
      "lives": 4341,
      "simpli": 4342,
      "амбицио": 4343,
      "май": 4344,
      "обновя": 4345,
      "pective": 4346,
      "Второ": 4347,
      "смятам": 4348,
      "нено": 4349,
      "подпи": 4350,
      "effects": 4351,
      "ом": 4352,
      "unemployment": 4353,
      "безработи": 4354,
      "throughout": 4355,
      "законодателството": 4356,
      "visa": 4357,
      "съсредото": 4358,
      "представи": 4359,
      "дя": 4360,
      "сия": 4361,
      "застра": 4362,
      "service": 4363,
      "corre": 4364,
      "кратко": 4365,
      "съде": 4366,
      "приложи": 4367,
      "eval": 4368,
      "отговори": 4369,
      "търговията": 4370,
      "безопасността": 4371,
      "Докладът": 4372,
      "международната": 4373,
      "colleag": 4374,
      "Преди": 4375,
      "стимули": 4376,
      "около": 4377,
      "манита": 4378,
      "почти": 4379,
      "circ": 4380,
      "пря": 4381,
      "little": 4382,
      "Следва": 4383,
      "големите": 4384,
      "съгласие": 4385,
      "milit": 4386,
      "декла": 4387,
      "conv": 4388,
      "creating": 4389,
      "solutions": 4390,
      "facilit": 4391,
      "координа": 4392,
      "partners": 4393,
      "надзор": 4394,
      "задълбо": 4395,
      "участва": 4396,
      "Irel": 4397,
      "four": 4398,
      "2012": 4399,
      "Develop": 4400,
      "relev": 4401,
      "Ireland": 4402,
      "Mar": 4403,
      "vol": 4404,
      "Це": 4405,
      "lot": 4406,
      "вниманието": 4407,
      "призовава": 4408,
      "ledge": 4409,
      "вания": 4410,
      "затво": 4411,
      "срещата": 4412,
      "търговски": 4413,
      "образование": 4414,
      "dam": 4415,
      "зирането": 4416,
      "партньори": 4417,
      "професиона": 4418,
      "powers": 4419,
      "week": 4420,
      "Мисля": 4421,
      "интеграция": 4422,
      "Wor": 4423,
      "офи": 4424,
      "asy": 4425,
      "compreh": 4426,
      "defend": 4427,
      "Ex": 4428,
      "ясни": 4429,
      "theless": 4430,
      "cell": 4431,
      "decid": 4432,
      "budgetary": 4433,
      "освобожда": 4434,
      "sus": 4435,
      "постигнат": 4436,
      "Barro": 4437,
      "разпоредби": 4438,
      "II": 4439,
      "дума": 4440,
      "подгот": 4441,
      "method": 4442,
      "рели": 4443,
      "макар": 4444,
      "tees": 4445,
      "нуждаем": 4446,
      "младите": 4447,
      "отхвър": 4448,
      "гъвка": 4449,
      "Bal": 4450,
      "ulate": 4451,
      "flex": 4452,
      "All": 4453,
      "Съгла": 4454,
      "technical": 4455,
      "Обе": 4456,
      "мобили": 4457,
      "тните": 4458,
      "продукт": 4459,
      "Isra": 4460,
      "repe": 4461,
      "community": 4462,
      "национални": 4463,
      "работниците": 4464,
      "charge": 4465,
      "might": 4466,
      "заседание": 4467,
      "населението": 4468,
      "relig": 4469,
      "раел": 4470,
      "предостави": 4471,
      "aring": 4472,
      "мащаб": 4473,
      "пове": 4474,
      "посла": 4475,
      "роб": 4476,
      "търсе": 4477,
      "waste": 4478,
      "Африка": 4479,
      "borders": 4480,
      "процедура": 4481,
      "Roma": 4482,
      "yes": 4483,
      "лице": 4484,
      "precise": 4485,
      "земно": 4486,
      "интегри": 4487,
      "When": 4488,
      "NL": 4489,
      "ibility": 4490,
      "вота": 4491,
      "опазването": 4492,
      "nothing": 4493,
      "зен": 4494,
      "хуманита": 4495,
      "mater": 4496,
      "вземат": 4497,
      "amount": 4498,
      "Cz": 4499,
      "Iran": 4500,
      "big": 4501,
      "table": 4502,
      "дине": 4503,
      "consul": 4504,
      "suffer": 4505,
      "kill": 4506,
      "shall": 4507,
      "grants": 4508,
      "obvious": 4509,
      "управ": 4510,
      "refer": 4511,
      "outh": 4512,
      "тин": 4513,
      "recovery": 4514,
      "Secondly": 4515,
      "dut": 4516,
      "нашия": 4517,
      "селските": 4518,
      "партия": 4519,
      "efficient": 4520,
      "насилие": 4521,
      "управлението": 4522,
      "harmon": 4523,
      "развиващите": 4524,
      "basic": 4525,
      "мат": 4526,
      "explo": 4527,
      "спло": 4528,
      "дели": 4529,
      "sug": 4530,
      "производство": 4531,
      "crats": 4532,
      "канди": 4533,
      "infrastructure": 4534,
      "Czech": 4535,
      "uine": 4536,
      "вой": 4537,
      "принос": 4538,
      "междунаро": 4539,
      "посока": 4540,
      "продължим": 4541,
      "treatment": 4542,
      "tation": 4543,
      "завър": 4544,
      "prices": 4545,
      "reports": 4546,
      "Ap": 4547,
      "предвижда": 4548,
      "tru": 4549,
      "насърчава": 4550,
      "Affairs": 4551,
      "AT": 4552,
      "море": 4553,
      "дейности": 4554,
      "производството": 4555,
      "reforms": 4556,
      "until": 4557,
      "langu": 4558,
      "demonstr": 4559,
      "шава": 4560,
      "успех": 4561,
      "strengthening": 4562,
      "тер": 4563,
      "потвър": 4564,
      "работе": 4565,
      "Development": 4566,
      "освен": 4567,
      "рения": 4568,
      "зависи": 4569,
      "съди": 4570,
      "abil": 4571,
      "следователно": 4572,
      "месеца": 4573,
      "bl": 4574,
      "члена": 4575,
      "export": 4576,
      "media": 4577,
      "програмата": 4578,
      "трудно": 4579,
      "sense": 4580,
      "five": 4581,
      "чете": 4582,
      "мята": 4583,
      "function": 4584,
      "изгражда": 4585,
      "Intern": 4586,
      "involve": 4587,
      "fishing": 4588,
      "absolutely": 4589,
      "ционна": 4590,
      "speech": 4591,
      "carry": 4592,
      "initiatives": 4593,
      "хиля": 4594,
      "падъ": 4595,
      "Further": 4596,
      "становище": 4597,
      "...": 4598,
      "pati": 4599,
      "death": 4600,
      "лянето": 4601,
      "justice": 4602,
      "финансирането": 4603,
      "promoting": 4604,
      "баланси": 4605,
      "wide": 4606,
      "humanitarian": 4607,
      "industrial": 4608,
      "нъж": 4609,
      "млн": 4610,
      "SME": 4611,
      "ires": 4612,
      "Споразуме": 4613,
      "International": 4614,
      "But": 4615,
      "био": 4616,
      "основата": 4617,
      "ics": 4618,
      "изправени": 4619,
      "средните": 4620,
      "стопани": 4621,
      "незаба": 4622,
      "sectors": 4623,
      "My": 4624,
      "справя": 4625,
      "ison": 4626,
      "политическите": 4627,
      "everything": 4628,
      "network": 4629,
      "категори": 4630,
      "17": 4631,
      "сва": 4632,
      "стойност": 4633,
      "правителството": 4634,
      "отношенията": 4635,
      "improving": 4636,
      "relevant": 4637,
      "деле": 4638,
      "model": 4639,
      "ranean": 4640,
      "емисиите": 4641,
      "Mediter": 4642,
      "80": 4643,
      "съкра": 4644,
      "икономическите": 4645,
      "aims": 4646,
      "effectively": 4647,
      "reached": 4648,
      "обучение": 4649,
      "liberal": 4650,
      "Mediterranean": 4651,
      "%.": 4652,
      "tool": 4653,
      "въздействието": 4654,
      "справедливо": 4655,
      "ризма": 4656,
      "outside": 4657,
      "mp": 4658,
      "held": 4659,
      "itional": 4660,
      "гети": 4661,
      "anti": 4662,
      "докладът": 4663,
      "assessment": 4664,
      "ule": 4665,
      "нара": 4666,
      "отпадъ": 4667,
      "Кога": 4668,
      "pressure": 4669,
      "засил": 4670,
      "предотвра": 4671,
      "Подкре": 4672,
      "дават": 4673,
      "правна": 4674,
      "body": 4675,
      "document": 4676,
      "мет": 4677,
      "лекар": 4678,
      "доказа": 4679,
      "acy": 4680,
      "гарантират": 4681,
      "европейското": 4682,
      "ръковод": 4683,
      "Or": 4684,
      "Всъщност": 4685,
      "жна": 4686,
      "режим": 4687,
      "tomor": 4688,
      "разби": 4689,
      "действително": 4690,
      "Ukraine": 4691,
      "Обедине": 4692,
      "tomorrow": 4693,
      "Украйна": 4694,
      "запаз": 4695,
      "съд": 4696,
      "post": 4697,
      "takes": 4698,
      "tary": 4699,
      "аспекти": 4700,
      "надеж": 4701,
      "conflict": 4702,
      "asylum": 4703,
      "60": 4704,
      "him": 4705,
      "шната": 4706,
      "grat": 4707,
      "опита": 4708,
      "fisheries": 4709,
      "associ": 4710,
      "склю": 4711,
      "neg": 4712,
      "ментите": 4713,
      "близо": 4714,
      "mark": 4715,
      "селското": 4716,
      "hind": 4717,
      "ческо": 4718,
      "действител": 4719,
      "openha": 4720,
      "мъже": 4721,
      "combat": 4722,
      "Copenha": 4723,
      "motion": 4724,
      "времето": 4725,
      "практики": 4726,
      "пространство": 4727,
      "Copenhagen": 4728,
      "sco": 4729,
      "Си": 4730,
      "detail": 4731,
      "циен": 4732,
      "closed": 4733,
      "established": 4734,
      "Africa": 4735,
      "Барозу": 4736,
      "Barroso": 4737,
      "bly": 4738,
      "аб": 4739,
      "ческата": 4740,
      "пенха": 4741,
      "included": 4742,
      "Приветства": 4743,
      "influ": 4744,
      "ender": 4745,
      "highlight": 4746,
      "увеличаване": 4747,
      "Копенха": 4748,
      "measure": 4749,
      "министър": 4750,
      "съдеб": 4751,
      "Копенхаген": 4752,
      "дву": 4753,
      "доби": 4754,
      "обществото": 4755,
      "експло": 4756,
      "движение": 4757,
      "отбеле": 4758,
      "параграф": 4759,
      "анали": 4760,
      "лъж": 4761,
      "credit": 4762,
      "perhaps": 4763,
      "миналата": 4764,
      "официа": 4765,
      "установя": 4766,
      "второ": 4767,
      "',": 4768,
      "sat": 4769,
      "енергети": 4770,
      "принципи": 4771,
      "safegu": 4772,
      "capac": 4773,
      "избори": 4774,
      "етап": 4775,
      "разпростра": 4776,
      "спрямо": 4777,
      "EL": 4778,
      "цялост": 4779,
      "differen": 4780,
      "довол": 4781,
      "вас": 4782,
      "подобни": 4783,
      "предприятията": 4784,
      "банка": 4785,
      "млрд": 4786,
      "origin": 4787,
      "100": 4788,
      "Of": 4789,
      "изсле": 4790,
      "product": 4791,
      "graph": 4792,
      "military": 4793,
      "Ве": 4794,
      "зло": 4795,
      "терна": 4796,
      "developed": 4797,
      "goods": 4798,
      "тяхното": 4799,
      "осигуряване": 4800,
      "Hungarian": 4801,
      "хармони": 4802,
      "изисквания": 4803,
      "пакет": 4804,
      "13": 4805,
      "понастоящем": 4806,
      "суа": 4807,
      "answer": 4808,
      "плат": 4809,
      "crime": 4810,
      "предоставяне": 4811,
      "combating": 4812,
      "communication": 4813,
      "координи": 4814,
      "рита": 4815,
      "спект": 4816,
      "Furthermore": 4817,
      "analy": 4818,
      "прекра": 4819,
      "unch": 4820,
      "определено": 4821,
      "namely": 4822,
      "утре": 4823,
      "заслу": 4824,
      "тим": 4825,
      "оръ": 4826,
      "although": 4827,
      "attack": 4828,
      "Strate": 4829,
      "Международ": 4830,
      "приключи": 4831,
      "Internet": 4832,
      "чността": 4833,
      "ension": 4834,
      "отли": 4835,
      "енергийна": 4836,
      "passeng": 4837,
      "Румъ": 4838,
      "денти": 4839,
      "calls": 4840,
      "ангажимент": 4841,
      "зад": 4842,
      "Europeans": 4843,
      "supporting": 4844,
      "близ": 4845,
      "отделните": 4846,
      "bit": 4847,
      "съста": 4848,
      "cting": 4849,
      "пациен": 4850,
      "специ": 4851,
      "помощта": 4852,
      "149": 4853,
      "Rule": 4854,
      "Tod": 4855,
      "бси": 4856,
      "достъ": 4857,
      "цялата": 4858,
      "saying": 4859,
      "competitive": 4860,
      "допринесе": 4861,
      "веднъж": 4862,
      "Today": 4863,
      "ug": 4864,
      "ниво": 4865,
      "Съще": 4866,
      "стандарт": 4867,
      "Един": 4868,
      "възобновя": 4869,
      "зата": 4870,
      "нещата": 4871,
      "преразгле": 4872,
      "Когато": 4873,
      "ствието": 4874,
      "регула": 4875,
      "Директивата": 4876,
      "comprehensive": 4877,
      "subsid": 4878,
      "benefits": 4879,
      "обхва": 4880,
      "Now": 4881,
      "altern": 4882,
      "ilar": 4883,
      "социалното": 4884,
      "administrative": 4885,
      "scient": 4886,
      "акт": 4887,
      "заради": 4888,
      "сек": 4889,
      "days": 4890,
      "provides": 4891,
      "sufficient": 4892,
      "Стра": 4893,
      "повто": 4894,
      "помня": 4895,
      "ared": 4896,
      "estic": 4897,
      "въвеждането": 4898,
      "външна": 4899,
      "готов": 4900,
      "equality": 4901,
      "ourselves": 4902,
      "информи": 4903,
      "remains": 4904,
      "institutional": 4905,
      "adequate": 4906,
      "деклара": 4907,
      "ring": 4908,
      "almost": 4909,
      "разработ": 4910,
      "ждат": 4911,
      "direction": 4912,
      "MEP": 4913,
      "HU": 4914,
      "dan": 4915,
      "isms": 4916,
      "промяна": 4917,
      "reality": 4918,
      "movement": 4919,
      "astern": 4920,
      "AC": 4921,
      "Amer": 4922,
      "ying": 4923,
      "небре": 4924,
      "moder": 4925,
      "related": 4926,
      "asked": 4927,
      "производители": 4928,
      "SMEs": 4929,
      "Americ": 4930,
      "LT": 4931,
      "either": 4932,
      "яваме": 4933,
      "possibility": 4934,
      "regime": 4935,
      "clud": 4936,
      "конкуренция": 4937,
      "седмица": 4938,
      "Cent": 4939,
      "rural": 4940,
      "шни": 4941,
      "ващи": 4942,
      "дале": 4943,
      "прекъ": 4944,
      "вяне": 4945,
      "постави": 4946,
      "натиск": 4947,
      "перспекти": 4948,
      "satis": 4949,
      "одобре": 4950,
      "stage": 4951,
      "субси": 4952,
      "граници": 4953,
      "requires": 4954,
      "международните": 4955,
      "лизацията": 4956,
      "допълнителни": 4957,
      "received": 4958,
      "Democrats": 4959,
      "Румъния": 4960,
      "Смятам": 4961,
      "adap": 4962,
      "живота": 4963,
      "regret": 4964,
      "случва": 4965,
      "наруше": 4966,
      "determin": 4967,
      "six": 4968,
      "commer": 4969,
      "настоящия": 4970,
      "организация": 4971,
      "последиците": 4972,
      "Tra": 4973,
      "remind": 4974,
      "пани": 4975,
      "ake": 4976,
      "Зна": 4977,
      "въгле": 4978,
      "разде": 4979,
      "такава": 4980,
      "случая": 4981,
      "Romania": 4982,
      "алтерна": 4983,
      "alloc": 4984,
      "изклю": 4985,
      "кралство": 4986,
      "Севе": 4987,
      "Hu": 4988,
      "ненията": 4989,
      "лизира": 4990,
      "сим": 4991,
      "brought": 4992,
      "опазване": 4993,
      "ption": 4994,
      "рството": 4995,
      "rely": 4996,
      "ствена": 4997,
      "формата": 4998,
      "debt": 4999,
      "attemp": 5000,
      "price": 5001,
      "начина": 5002,
      "резултатите": 5003,
      "happ": 5004,
      "Благодаря": 5005,
      "Bank": 5006,
      "run": 5007,
      "send": 5008,
      "себе": 5009,
      "съобраз": 5010,
      "weak": 5011,
      "reducing": 5012,
      "обик": 5013,
      "represents": 5014,
      "рната": 5015,
      "мост": 5016,
      "печа": 5017,
      "прилагат": 5018,
      "територи": 5019,
      "ционните": 5020,
      "nature": 5021,
      "Swed": 5022,
      "water": 5023,
      "война": 5024,
      "created": 5025,
      "seems": 5026,
      "поздра": 5027,
      "цена": 5028,
      "боле": 5029,
      "implementing": 5030,
      "emphasise": 5031,
      "test": 5032,
      "храни": 5033,
      "друг": 5034,
      "институциона": 5035,
      "институциите": 5036,
      "message": 5037,
      "Ге": 5038,
      "есте": 5039,
      "return": 5040,
      "Съюз": 5041,
      "banks": 5042,
      "подпомагане": 5043,
      "смърт": 5044,
      "CO": 5045,
      "подроб": 5046,
      "submit": 5047,
      "summit": 5048,
      "applied": 5049,
      "effort": 5050,
      "correct": 5051,
      "кция": 5052,
      "съсед": 5053,
      "жението": 5054,
      "бежа": 5055,
      "стоки": 5056,
      "позволява": 5057,
      "Sch": 5058,
      "Thank": 5059,
      "completely": 5060,
      "Няма": 5061,
      "смисъл": 5062,
      "Обединеното": 5063,
      "uge": 5064,
      "tock": 5065,
      "deleg": 5066,
      "призи": 5067,
      "statements": 5068,
      "Що": 5069,
      "ети": 5070,
      "матери": 5071,
      "ема": 5072,
      "цените": 5073,
      "унгар": 5074,
      "вместо": 5075,
      "чието": 5076,
      "думата": 5077,
      "worth": 5078,
      "ложението": 5079,
      "упраж": 5080,
      "забравяме": 5081,
      "circum": 5082,
      "специфи": 5083,
      "вният": 5084,
      "шните": 5085,
      "съобще": 5086,
      "съгласува": 5087,
      "видове": 5088,
      "заключение": 5089,
      "green": 5090,
      "мври": 5091,
      "enh": 5092,
      "шест": 5093,
      "следващата": 5094,
      "steps": 5095,
      "conclusion": 5096,
      "конкурентоспособността": 5097,
      "достъпа": 5098,
      "чка": 5099,
      "finally": 5100,
      "трево": 5101,
      "дадем": 5102,
      "penal": 5103,
      "обеща": 5104,
      "ials": 5105,
      "committee": 5106,
      "took": 5107,
      "decided": 5108,
      "зацията": 5109,
      "лив": 5110,
      "excell": 5111,
      "структури": 5112,
      "recently": 5113,
      "building": 5114,
      "стреми": 5115,
      "family": 5116,
      "изследовател": 5117,
      "Human": 5118,
      "Cha": 5119,
      "теже": 5120,
      "щати": 5121,
      "конча": 5122,
      "здравето": 5123,
      "commitments": 5124,
      "увеличи": 5125,
      "date": 5126,
      "rat": 5127,
      "ора": 5128,
      "committed": 5129,
      "sources": 5130,
      "рва": 5131,
      "орган": 5132,
      "нуждае": 5133,
      "caused": 5134,
      "colleagues": 5135,
      "bre": 5136,
      "enge": 5137,
      "terrorism": 5138,
      "Serv": 5139,
      "away": 5140,
      "такова": 5141,
      "валу": 5142,
      "ket": 5143,
      "acts": 5144,
      "конвен": 5145,
      "председателя": 5146,
      "Ad": 5147,
      "yond": 5148,
      "хода": 5149,
      "exer": 5150,
      "насочени": 5151,
      "challenge": 5152,
      "селскостопанска": 5153,
      "играе": 5154,
      "ming": 5155,
      "шния": 5156,
      "economies": 5157,
      "press": 5158,
      "научни": 5159,
      "Необходимо": 5160,
      "targets": 5161,
      "ТО": 5162,
      "рус": 5163,
      "бюро": 5164,
      "ефективни": 5165,
      "изпълнение": 5166,
      "налице": 5167,
      "range": 5168,
      "500": 5169,
      "гене": 5170,
      "whose": 5171,
      "Въпро": 5172,
      "ception": 5173,
      "Strategy": 5174,
      "телен": 5175,
      "рено": 5176,
      "прека": 5177,
      "cember": 5178,
      "необходимите": 5179,
      "provision": 5180,
      "компро": 5181,
      "съществуващите": 5182,
      "December": 5183,
      "йн": 5184,
      "лагане": 5185,
      "events": 5186,
      "действията": 5187,
      "statement": 5188,
      "according": 5189,
      "san": 5190,
      "направят": 5191,
      "пренебре": 5192,
      "имам": 5193,
      "процедури": 5194,
      "facing": 5195,
      "practices": 5196,
      "bilities": 5197,
      "декември": 5198,
      "Гру": 5199,
      "arus": 5200,
      "portion": 5201,
      "gets": 5202,
      "конститу": 5203,
      "доверие": 5204,
      "повди": 5205,
      "десет": 5206,
      "Ash": 5207,
      "Action": 5208,
      "Pe": 5209,
      "ties": 5210,
      "риско": 5211,
      "прия": 5212,
      "ulg": 5213,
      "sibilities": 5214,
      "произве": 5215,
      "инициативи": 5216,
      "Belarus": 5217,
      "Приветствам": 5218,
      "item": 5219,
      "ource": 5220,
      "counter": 5221,
      "specif": 5222,
      "experience": 5223,
      "sis": 5224,
      "anish": 5225,
      "зани": 5226,
      "congrat": 5227,
      "obtain": 5228,
      "Convention": 5229,
      "cle": 5230,
      "Аш": 5231,
      "чване": 5232,
      "deep": 5233,
      "Unfortunately": 5234,
      "profes": 5235,
      "сфе": 5236,
      "shown": 5237,
      "Съединените": 5238,
      "гледа": 5239,
      "голямата": 5240,
      "стъпки": 5241,
      "подобри": 5242,
      "благоприят": 5243,
      "ones": 5244,
      "ления": 5245,
      "immigration": 5246,
      "тяхната": 5247,
      "genuine": 5248,
      "съвместно": 5249,
      "Ha": 5250,
      "dri": 5251,
      "тън": 5252,
      "остава": 5253,
      "жертвите": 5254,
      "sent": 5255,
      "she": 5256,
      "длъж": 5257,
      "женията": 5258,
      "ствените": 5259,
      "migrants": 5260,
      "closely": 5261,
      "suggest": 5262,
      "mut": 5263,
      "лете": 5264,
      "behind": 5265,
      "стове": 5266,
      "ished": 5267,
      "въглеро": 5268,
      "Just": 5269,
      "лети": 5270,
      "cover": 5271,
      "ourable": 5272,
      "giving": 5273,
      "нти": 5274,
      "сък": 5275,
      "superv": 5276,
      "оните": 5277,
      "вено": 5278,
      "voc": 5279,
      "Ни": 5280,
      "проя": 5281,
      "agencies": 5282,
      "mot": 5283,
      "някога": 5284,
      "призовавам": 5285,
      "бюрокра": 5286,
      "High": 5287,
      "aking": 5288,
      "ier": 5289,
      "процен": 5290,
      "политиките": 5291,
      "introduction": 5292,
      "могли": 5293,
      "beyond": 5294,
      "hood": 5295,
      "ток": 5296,
      "Важно": 5297,
      "засегнати": 5298,
      "famil": 5299,
      "Port": 5300,
      "ору": 5301,
      "република": 5302,
      "стват": 5303,
      "left": 5304,
      "местните": 5305,
      "leading": 5306,
      "Firstly": 5307,
      "загриже": 5308,
      "Offic": 5309,
      "entions": 5310,
      "избор": 5311,
      "настоящото": 5312,
      "engen": 5313,
      "Договорът": 5314,
      "образованието": 5315,
      "ler": 5316,
      "omic": 5317,
      "интересите": 5318,
      "difficulties": 5319,
      "Moreover": 5320,
      "Econ": 5321,
      "израз": 5322,
      "heard": 5323,
      "unacceptable": 5324,
      "пит": 5325,
      "ангажира": 5326,
      "служба": 5327,
      "independent": 5328,
      "запази": 5329,
      "Schengen": 5330,
      "cers": 5331,
      "arily": 5332,
      "чили": 5333,
      "цени": 5334,
      "кризи": 5335,
      "неговите": 5336,
      "оконча": 5337,
      "ands": 5338,
      "Бал": 5339,
      "logical": 5340,
      "ening": 5341,
      "неотда": 5342,
      "отне": 5343,
      "regular": 5344,
      "guide": 5345,
      "receive": 5346,
      "липсата": 5347,
      "lar": 5348,
      "spend": 5349,
      "dem": 5350,
      "credi": 5351,
      "forms": 5352,
      "процедурата": 5353,
      "Bulg": 5354,
      "лицата": 5355,
      "служите": 5356,
      "задача": 5357,
      "жизнено": 5358,
      "Israel": 5359,
      "home": 5360,
      "os": 5361,
      "мар": 5362,
      "trust": 5363,
      "personal": 5364,
      "%,": 5365,
      "дните": 5366,
      "свиде": 5367,
      "roat": 5368,
      "значението": 5369,
      "minimum": 5370,
      "Израел": 5371,
      "мрежа": 5372,
      "capacity": 5373,
      "modern": 5374,
      "вали": 5375,
      "total": 5376,
      "чета": 5377,
      "изма": 5378,
      "шени": 5379,
      "съответните": 5380,
      "fil": 5381,
      "ак": 5382,
      "via": 5383,
      "disaster": 5384,
      "периода": 5385,
      "technologies": 5386,
      "pi": 5387,
      "основно": 5388,
      "мандат": 5389,
      "successful": 5390,
      "широко": 5391,
      "Ита": 5392,
      "org": 5393,
      "нататъ": 5394,
      "имаше": 5395,
      "plans": 5396,
      "prepar": 5397,
      "предложенията": 5398,
      "повишаване": 5399,
      "reject": 5400,
      "заинтере": 5401,
      "дома": 5402,
      "tell": 5403,
      "гарантиране": 5404,
      "investig": 5405,
      "сексуа": 5406,
      "circumst": 5407,
      "уни": 5408,
      "необходима": 5409,
      "operate": 5410,
      "повечето": 5411,
      "приемат": 5412,
      "експе": 5413,
      "activity": 5414,
      "Regulation": 5415,
      "съществуват": 5416,
      "pursu": 5417,
      "население": 5418,
      "prepared": 5419,
      "действителност": 5420,
      "May": 5421,
      "South": 5422,
      "por": 5423,
      "туга": 5424,
      "правомощия": 5425,
      "консулта": 5426,
      "Am": 5427,
      "Croat": 5428,
      "мът": 5429,
      "разбе": 5430,
      "structural": 5431,
      "иновации": 5432,
      "16": 5433,
      "световната": 5434,
      "critic": 5435,
      "иновациите": 5436,
      "transparent": 5437,
      "mechanisms": 5438,
      "commercial": 5439,
      "компромис": 5440,
      "Fr": 5441,
      "tabled": 5442,
      "уме": 5443,
      "itation": 5444,
      "crete": 5445,
      "документи": 5446,
      "similar": 5447,
      "обхват": 5448,
      "doubt": 5449,
      "proportion": 5450,
      "une": 5451,
      "социален": 5452,
      "discuss": 5453,
      "идеята": 5454,
      "precisely": 5455,
      "Economic": 5456,
      "camp": 5457,
      "gender": 5458,
      "ost": 5459,
      "рното": 5460,
      "нека": 5461,
      "thern": 5462,
      "criminal": 5463,
      "looking": 5464,
      "safeguard": 5465,
      "Иран": 5466,
      "inking": 5467,
      "leave": 5468,
      "ърват": 5469,
      "дискриминация": 5470,
      "territor": 5471,
      "нството": 5472,
      "icial": 5473,
      "солю": 5474,
      "социалната": 5475,
      "данните": 5476,
      "внимателно": 5477,
      "противоре": 5478,
      "instead": 5479,
      "burden": 5480,
      "Last": 5481,
      "task": 5482,
      "ЕО": 5483,
      "Ун": 5484,
      "парти": 5485,
      "loss": 5486,
      "calling": 5487,
      "design": 5488,
      "technology": 5489,
      "accordance": 5490,
      "трансграни": 5491,
      "обикнове": 5492,
      "чените": 5493,
      "concrete": 5494,
      "exper": 5495,
      "свободи": 5496,
      "еврото": 5497,
      "pension": 5498,
      "MEPs": 5499,
      "свет": 5500,
      "producers": 5501,
      "ефективна": 5502,
      "представляват": 5503,
      "автомоби": 5504,
      "считаме": 5505,
      "заинтересо": 5506,
      "circumstances": 5507,
      "видим": 5508,
      "сат": 5509,
      "четири": 5510,
      "леви": 5511,
      "язви": 5512,
      "ристи": 5513,
      "същевременно": 5514,
      "delay": 5515,
      "мерикан": 5516,
      "riend": 5517,
      "Вас": 5518,
      "взаимо": 5519,
      "компетент": 5520,
      "международни": 5521,
      "Споразумението": 5522,
      "danger": 5523,
      "En": 5524,
      "кръ": 5525,
      "наре": 5526,
      "poor": 5527,
      "град": 5528,
      "ръща": 5529,
      "uel": 5530,
      "discussions": 5531,
      "refuge": 5532,
      "Program": 5533,
      "scientific": 5534,
      "уязви": 5535,
      "forget": 5536,
      "правовата": 5537,
      "sels": 5538,
      "despite": 5539,
      "profession": 5540,
      "forced": 5541,
      "достой": 5542,
      "exchange": 5543,
      "presented": 5544,
      "Италия": 5545,
      "estern": 5546,
      "rop": 5547,
      "ars": 5548,
      "ческия": 5549,
      "предоставят": 5550,
      "divers": 5551,
      "representatives": 5552,
      "разполагаме": 5553,
      "Ashton": 5554,
      "Аштън": 5555,
      "мия": 5556,
      "сят": 5557,
      "remember": 5558,
      "отчита": 5559,
      "Party": 5560,
      "започне": 5561,
      "срав": 5562,
      "Brit": 5563,
      "dict": 5564,
      "Ind": 5565,
      "създава": 5566,
      "критерии": 5567,
      "alternative": 5568,
      "Office": 5569,
      "остро": 5570,
      "установи": 5571,
      "World": 5572,
      "scope": 5573,
      "квали": 5574,
      "език": 5575,
      "експлоата": 5576,
      "rein": 5577,
      "restrict": 5578,
      "ons": 5579,
      "лиде": 5580,
      "промен": 5581,
      "forces": 5582,
      "event": 5583,
      "отговорността": 5584,
      "medic": 5585,
      "независи": 5586,
      "And": 5587,
      "Do": 5588,
      "ureau": 5589,
      "външните": 5590,
      "Spanish": 5591,
      "lat": 5592,
      "избира": 5593,
      "газ": 5594,
      "weeks": 5595,
      "friend": 5596,
      "бил": 5597,
      "страда": 5598,
      "discharge": 5599,
      "основание": 5600,
      "knowledge": 5601,
      "получат": 5602,
      "седмици": 5603,
      "specifically": 5604,
      "Ac": 5605,
      "Pr": 5606,
      "paid": 5607,
      "inary": 5608,
      "обстоя": 5609,
      "ulner": 5610,
      "енергийни": 5611,
      "милиар": 5612,
      "culture": 5613,
      "construction": 5614,
      "американ": 5615,
      "univers": 5616,
      "възнаме": 5617,
      "конферен": 5618,
      "establishing": 5619,
      "доброто": 5620,
      "спан": 5621,
      "Ла": 5622,
      "Пи": 5623,
      "conside": 5624,
      "condem": 5625,
      "първонача": 5626,
      "Бела": 5627,
      "далеч": 5628,
      "considered": 5629,
      "flo": 5630,
      "gency": 5631,
      "vulner": 5632,
      "МСП": 5633,
      "одоб": 5634,
      "seek": 5635,
      "рмания": 5636,
      "recommendations": 5637,
      "Германия": 5638,
      "съмнение": 5639,
      "сектори": 5640,
      "реаги": 5641,
      "собствените": 5642,
      "early": 5643,
      "participation": 5644,
      "пор": 5645,
      "дире": 5646,
      "пада": 5647,
      "пътя": 5648,
      "ограничения": 5649,
      "приоритети": 5650,
      "бележ": 5651,
      "Partnership": 5652,
      "абсолю": 5653,
      "Фран": 5654,
      "аспект": 5655,
      "мна": 5656,
      "моде": 5657,
      "separ": 5658,
      "Italy": 5659,
      "prim": 5660,
      "confidence": 5661,
      "beginning": 5662,
      "patients": 5663,
      "Беларус": 5664,
      "wise": 5665,
      "зиск": 5666,
      "стату": 5667,
      "met": 5668,
      "forest": 5669,
      "legit": 5670,
      "грижи": 5671,
      "intended": 5672,
      "мнозинство": 5673,
      "negative": 5674,
      "supervision": 5675,
      "uations": 5676,
      "itable": 5677,
      "зер": 5678,
      "улес": 5679,
      "CA": 5680,
      "East": 5681,
      "Европей": 5682,
      "лош": 5683,
      "finance": 5684,
      "Накрая": 5685,
      "standard": 5686,
      "annual": 5687,
      "тради": 5688,
      "мисле": 5689,
      "cide": 5690,
      "aper": 5691,
      "Най": 5692,
      "свободна": 5693,
      "политическо": 5694,
      "необходимост": 5695,
      "Въз": 5696,
      "последно": 5697,
      "брита": 5698,
      "thous": 5699,
      "обрат": 5700,
      "prison": 5701,
      "съгласен": 5702,
      "насят": 5703,
      "discussed": 5704,
      "strongly": 5705,
      "присъединяване": 5706,
      "achieving": 5707,
      "parliamentary": 5708,
      "Ор": 5709,
      "нар": 5710,
      "направе": 5711,
      "никога": 5712,
      "коп": 5713,
      "анти": 5714,
      "национално": 5715,
      "терито": 5716,
      "investments": 5717,
      "докладчик": 5718,
      "доверието": 5719,
      "отри": 5720,
      "моите": 5721,
      "sex": 5722,
      "hear": 5723,
      "Парламент": 5724,
      "serve": 5725,
      "използваме": 5726,
      "central": 5727,
      "includes": 5728,
      "properly": 5729,
      "excellent": 5730,
      "лният": 5731,
      "капа": 5732,
      "своето": 5733,
      "extent": 5734,
      "Be": 5735,
      "Дър": 5736,
      "обеди": 5737,
      "Represent": 5738,
      "Liby": 5739,
      "дълг": 5740,
      "разнообрази": 5741,
      "eth": 5742,
      "nam": 5743,
      "atic": 5744,
      "неприем": 5745,
      "ченията": 5746,
      "трябваше": 5747,
      "distribut": 5748,
      "органите": 5749,
      "launch": 5750,
      "bilateral": 5751,
      "increasingly": 5752,
      "presid": 5753,
      "юк": 5754,
      "обвър": 5755,
      "extra": 5756,
      "посочва": 5757,
      "научно": 5758,
      "обсъждаме": 5759,
      "improved": 5760,
      "status": 5761,
      "мъжете": 5762,
      "Ge": 5763,
      "Ал": 5764,
      "Среди": 5765,
      "март": 5766,
      "гнем": 5767,
      "демон": 5768,
      "изпълни": 5769,
      "Средиземно": 5770,
      "March": 5771,
      "itors": 5772,
      "вода": 5773,
      "mobility": 5774,
      "късно": 5775,
      "scale": 5776,
      "устано": 5777,
      "declar": 5778,
      "travel": 5779,
      "matic": 5780,
      "подчертава": 5781,
      "Although": 5782,
      "двустран": 5783,
      "21": 5784,
      "came": 5785,
      "mass": 5786,
      "oil": 5787,
      "поиска": 5788,
      "какъв": 5789,
      "регламента": 5790,
      "relationship": 5791,
      "defence": 5792,
      "minorities": 5793,
      "лесно": 5794,
      "overall": 5795,
      "обяс": 5796,
      "опрост": 5797,
      "argu": 5798,
      "чер": 5799,
      "досега": 5800,
      "transfer": 5801,
      "произход": 5802,
      "balanced": 5803,
      "участието": 5804,
      "Дру": 5805,
      "модел": 5806,
      "организира": 5807,
      "минима": 5808,
      "кажат": 5809,
      "introduce": 5810,
      "shows": 5811,
      "администрати": 5812,
      "Прави": 5813,
      "People": 5814,
      "приспособ": 5815,
      "const": 5816,
      "определя": 5817,
      "higher": 5818,
      "recognise": 5819,
      "уважа": 5820,
      "тероризма": 5821,
      "ys": 5822,
      "party": 5823,
      "правителства": 5824,
      "предприемат": 5825,
      "оправ": 5826,
      "преглед": 5827,
      "raised": 5828,
      "пътниците": 5829,
      "Programme": 5830,
      "Хърват": 5831,
      "смята": 5832,
      "thanks": 5833,
      "контроли": 5834,
      "bodies": 5835,
      "decl": 5836,
      "зирани": 5837,
      "потреб": 5838,
      "else": 5839,
      "trafficking": 5840,
      "координация": 5841,
      "прекалено": 5842,
      "Egy": 5843,
      "Nations": 5844,
      "dim": 5845,
      "уби": 5846,
      "уско": 5847,
      "opposition": 5848,
      "upon": 5849,
      "Настоя": 5850,
      "видя": 5851,
      "history": 5852,
      "средством": 5853,
      "North": 5854,
      "ium": 5855,
      "тясно": 5856,
      "animal": 5857,
      "влияние": 5858,
      "Market": 5859,
      "юни": 5860,
      "ash": 5861,
      "mobil": 5862,
      "usive": 5863,
      "обсъждане": 5864,
      "баланс": 5865,
      "земеделските": 5866,
      "Christian": 5867,
      "гъвкаво": 5868,
      "Croatia": 5869,
      "EP": 5870,
      "rise": 5871,
      "Со": 5872,
      "отразя": 5873,
      "премина": 5874,
      "работните": 5875,
      "данък": 5876,
      "малки": 5877,
      "allowed": 5878,
      "approved": 5879,
      "June": 5880,
      "dle": 5881,
      "expressed": 5882,
      "поеме": 5883,
      "Тъ": 5884,
      "рена": 5885,
      "heart": 5886,
      "кистан": 5887,
      "exact": 5888,
      "следствие": 5889,
      "председателството": 5890,
      "основен": 5891,
      "added": 5892,
      "миналото": 5893,
      "risks": 5894,
      "gain": 5895,
      "посе": 5896,
      "condu": 5897,
      "върхо": 5898,
      "дълбо": 5899,
      "known": 5900,
      "reduced": 5901,
      "световен": 5902,
      "гражданското": 5903,
      "directly": 5904,
      "conclusions": 5905,
      "domestic": 5906,
      "живеят": 5907,
      "пряко": 5908,
      "duty": 5909,
      "кандидат": 5910,
      "Тъй": 5911,
      "sens": 5912,
      "жни": 5913,
      "заб": 5914,
      "aria": 5915,
      "високи": 5916,
      "срок": 5917,
      "speaker": 5918,
      "емисии": 5919,
      "взаимно": 5920,
      "споделя": 5921,
      "connection": 5922,
      "Some": 5923,
      "az": 5924,
      "яването": 5925,
      "наред": 5926,
      "торите": 5927,
      "инфраструктура": 5928,
      "Франция": 5929,
      "тали": 5930,
      "кам": 5931,
      "воля": 5932,
      "проте": 5933,
      "едва": 5934,
      "spec": 5935,
      "trying": 5936,
      "laws": 5937,
      "discussing": 5938,
      "всяко": 5939,
      "chool": 5940,
      "ристиян": 5941,
      "Държа": 5942,
      "Хърватия": 5943,
      "treaty": 5944,
      "зите": 5945,
      "посредством": 5946,
      "лек": 5947,
      "сигна": 5948,
      "employed": 5949,
      "колегите": 5950,
      "experien": 5951,
      "renewable": 5952,
      "Representative": 5953,
      "Aud": 5954,
      "eg": 5955,
      "ъка": 5956,
      "ланти": 5957,
      "подкрепим": 5958,
      "Унгария": 5959,
      "reli": 5960,
      "замър": 5961,
      "види": 5962,
      "2004": 5963,
      "правосъди": 5964,
      "growing": 5965,
      "вземане": 5966,
      "istics": 5967,
      "language": 5968,
      "How": 5969,
      "Serb": 5970,
      "Шен": 5971,
      "обмен": 5972,
      "изказ": 5973,
      "ляване": 5974,
      "2005": 5975,
      "единния": 5976,
      "ОСП": 5977,
      "Indeed": 5978,
      "подкрепят": 5979,
      "perman": 5980,
      "последовател": 5981,
      "насилието": 5982,
      "integrated": 5983,
      "ruption": 5984,
      "санкции": 5985,
      "управлява": 5986,
      "Шенген": 5987,
      "CS": 5988,
      "cks": 5989,
      "ефика": 5990,
      "unfortunately": 5991,
      "нараства": 5992,
      "cat": 5993,
      "wr": 5994,
      "недостатъ": 5995,
      "размер": 5996,
      "antic": 5997,
      "labe": 5998,
      "families": 5999,
      "Оба": 6000,
      "Свето": 6001,
      "ческото": 6002,
      "прину": 6003,
      "мислим": 6004,
      "лизация": 6005,
      "подкрепяме": 6006,
      "spir": 6007,
      "complex": 6008,
      "общности": 6009,
      "поко": 6010,
      "забо": 6011,
      "мярка": 6012,
      "възможностите": 6013,
      "предприеме": 6014,
      "сово": 6015,
      "спеку": 6016,
      "заседанието": 6017,
      "рибарството": 6018,
      "damage": 6019,
      "послание": 6020,
      "Central": 6021,
      "Trade": 6022,
      "Sa": 6023,
      "обра": 6024,
      "illions": 6025,
      "geo": 6026,
      "ously": 6027,
      "пазарите": 6028,
      "казано": 6029,
      "пъту": 6030,
      "намали": 6031,
      "limit": 6032,
      "Germany": 6033,
      "представители": 6034,
      "безработицата": 6035,
      "справяне": 6036,
      "Egypt": 6037,
      "зация": 6038,
      "secure": 6039,
      "гипет": 6040,
      "върха": 6041,
      "plause": 6042,
      "super": 6043,
      "perspective": 6044,
      "активно": 6045,
      "включени": 6046,
      "vereign": 6047,
      "guidelines": 6048,
      "rus": 6049,
      "school": 6050,
      "следване": 6051,
      "wrong": 6052,
      "cand": 6053,
      "поя": 6054,
      "неот": 6055,
      "ori": 6056,
      "entry": 6057,
      "stri": 6058,
      "гор": 6059,
      "defic": 6060,
      "note": 6061,
      "saving": 6062,
      "продължение": 6063,
      "wanted": 6064,
      "данъко": 6065,
      "подходящи": 6066,
      "производителите": 6067,
      "constitution": 6068,
      "Ob": 6069,
      "aut": 6070,
      "Тре": 6071,
      "силна": 6072,
      "телните": 6073,
      "France": 6074,
      "Jap": 6075,
      "испан": 6076,
      "задово": 6077,
      "макси": 6078,
      "sovereign": 6079,
      "тирането": 6080,
      "надяваме": 6081,
      "продължават": 6082,
      "религи": 6083,
      "незабавно": 6084,
      "Japan": 6085,
      "Eastern": 6086,
      "cri": 6087,
      "мир": 6088,
      "ляска": 6089,
      "fered": 6090,
      "manner": 6091,
      "искане": 6092,
      "Mrs": 6093,
      "nergy": 6094,
      "Регламен": 6095,
      "документ": 6096,
      "наблюдение": 6097,
      "рей": 6098,
      "правни": 6099,
      "кува": 6100,
      "mandate": 6101,
      "гео": 6102,
      "linked": 6103,
      "Gener": 6104,
      "mic": 6105,
      "ov": 6106,
      "spo": 6107,
      "Бъл": 6108,
      "alone": 6109,
      "възник": 6110,
      "inding": 6111,
      "пусти": 6112,
      "строги": 6113,
      "vulnerable": 6114,
      "23": 6115,
      "ially": 6116,
      "ЕФ": 6117,
      "ави": 6118,
      "сх": 6119,
      "задължения": 6120,
      "seriously": 6121,
      "равенството": 6122,
      "histor": 6123,
      "target": 6124,
      "пациентите": 6125,
      "поздравя": 6126,
      "пти": 6127,
      "referen": 6128,
      "кору": 6129,
      "изрази": 6130,
      "проекта": 6131,
      "taxpay": 6132,
      "Разиск": 6133,
      "ляскания": 6134,
      "засили": 6135,
      "газо": 6136,
      "produce": 6137,
      "popul": 6138,
      "passengers": 6139,
      "раните": 6140,
      "важните": 6141,
      "правителствата": 6142,
      "въвеждане": 6143,
      "establishment": 6144,
      "осъществя": 6145,
      "placed": 6146,
      "advantage": 6147,
      "bureau": 6148,
      "ени": 6149,
      "ened": 6150,
      "заба": 6151,
      "arter": 6152,
      "телна": 6153,
      "цяла": 6154,
      "raph": 6155,
      "setting": 6156,
      "leader": 6157,
      "декват": 6158,
      "истори": 6159,
      "хиляди": 6160,
      "24": 6161,
      "нада": 6162,
      "orm": 6163,
      "tour": 6164,
      "deli": 6165,
      "iddle": 6166,
      "goes": 6167,
      "важност": 6168,
      "rapid": 6169,
      "consideration": 6170,
      "решаващо": 6171,
      "convin": 6172,
      "cast": 6173,
      "Отно": 6174,
      "ванията": 6175,
      "тема": 6176,
      "залата": 6177,
      "дефици": 6178,
      "горе": 6179,
      "company": 6180,
      "елементи": 6181,
      "стабилността": 6182,
      "guarantees": 6183,
      "Какво": 6184,
      "знаете": 6185,
      "SK": 6186,
      "hic": 6187,
      "agraph": 6188,
      "инвестициите": 6189,
      "услугите": 6190,
      "limited": 6191,
      "комуника": 6192,
      "България": 6193,
      "Ръ": 6194,
      "вки": 6195,
      "ствите": 6196,
      "лизиране": 6197,
      "decide": 6198,
      "prevention": 6199,
      "делега": 6200,
      "капаците": 6201,
      "Ir": 6202,
      "регионите": 6203,
      "осигурява": 6204,
      "равнището": 6205,
      "corpor": 6206,
      "Подкрепя": 6207,
      "influence": 6208,
      "Georg": 6209,
      "моя": 6210,
      "гради": 6211,
      "еднак": 6212,
      "конкуренцията": 6213,
      "качество": 6214,
      "rates": 6215,
      "адекват": 6216,
      "желе": 6217,
      "healthcare": 6218,
      "conclude": 6219,
      "announ": 6220,
      "укрепване": 6221,
      "religious": 6222,
      "lantic": 6223,
      "ясна": 6224,
      "палата": 6225,
      "consolid": 6226,
      "goal": 6227,
      "участват": 6228,
      "Janu": 6229,
      "Western": 6230,
      "enforce": 6231,
      "мисли": 6232,
      "местно": 6233,
      "изискванията": 6234,
      "механизми": 6235,
      "January": 6236,
      "DP": 6237,
      "Европейските": 6238,
      "disput": 6239,
      "шат": 6240,
      "learn": 6241,
      "elements": 6242,
      "closer": 6243,
      "решаване": 6244,
      "броя": 6245,
      "occur": 6246,
      "характер": 6247,
      "Organ": 6248,
      "differences": 6249,
      "нена": 6250,
      "vehic": 6251,
      "дена": 6252,
      "бихме": 6253,
      "developments": 6254,
      "practical": 6255,
      "documents": 6256,
      "Auditors": 6257,
      "Ne": 6258,
      "jour": 6259,
      "ze": 6260,
      "яну": 6261,
      "зират": 6262,
      "предим": 6263,
      "animals": 6264,
      "Целта": 6265,
      "Bulgaria": 6266,
      "Since": 6267,
      "кло": 6268,
      "пълна": 6269,
      "critical": 6270,
      "introduced": 6271,
      "protecting": 6272,
      "Hungary": 6273,
      "Северна": 6274,
      "януари": 6275,
      "gives": 6276,
      "poses": 6277,
      "faced": 6278,
      "външната": 6279,
      "expression": 6280,
      "purpose": 6281,
      "разпоредбите": 6282,
      "дългосрочен": 6283,
      "independence": 6284,
      "сравнение": 6285,
      "бизне": 6286,
      "дис": 6287,
      "poll": 6288,
      "situations": 6289,
      "нямат": 6290,
      "насърчи": 6291,
      "инициативата": 6292,
      "окаже": 6293,
      "решите": 6294,
      "iture": 6295,
      "обръща": 6296,
      "предназна": 6297,
      "expend": 6298,
      "elim": 6299,
      "животните": 6300,
      "останалите": 6301,
      "отпадъци": 6302,
      "Service": 6303,
      "candid": 6304,
      "Vice": 6305,
      "ai": 6306,
      "отра": 6307,
      "sets": 6308,
      "намери": 6309,
      "публичните": 6310,
      "разгледаме": 6311,
      "tackle": 6312,
      "Pal": 6313,
      "Tun": 6314,
      "vest": 6315,
      "stake": 6316,
      "type": 6317,
      "Sea": 6318,
      "заяви": 6319,
      "фактът": 6320,
      "Испа": 6321,
      "замест": 6322,
      "ultim": 6323,
      "инду": 6324,
      "слабо": 6325,
      "конфликт": 6326,
      "CO2": 6327,
      "sanctions": 6328,
      "congratulate": 6329,
      "Испания": 6330,
      "Pak": 6331,
      "UK": 6332,
      "binding": 6333,
      "lay": 6334,
      "ufact": 6335,
      "Пор": 6336,
      "референ": 6337,
      "същия": 6338,
      "дипло": 6339,
      "dep": 6340,
      "manufact": 6341,
      "ствен": 6342,
      "Пол": 6343,
      "структурните": 6344,
      "succeed": 6345,
      "Pakistan": 6346,
      "Lat": 6347,
      "ждение": 6348,
      "иденти": 6349,
      "надле": 6350,
      "ефективността": 6351,
      "pointed": 6352,
      "facilitate": 6353,
      "общите": 6354,
      "adver": 6355,
      "констру": 6356,
      "ктове": 6357,
      "ландия": 6358,
      "Security": 6359,
      "известно": 6360,
      "immediate": 6361,
      "категорично": 6362,
      "рг": 6363,
      "чест": 6364,
      "клау": 6365,
      "първата": 6366,
      "международното": 6367,
      "session": 6368,
      "functioning": 6369,
      "териториа": 6370,
      "отрица": 6371,
      "bloc": 6372,
      "house": 6373,
      "кани": 6374,
      "тисти": 6375,
      "proceed": 6376,
      "гласуваме": 6377,
      "обхвата": 6378,
      "присъединяването": 6379,
      "CAP": 6380,
      "ds": 6381,
      "ЕИ": 6382,
      "учили": 6383,
      "напредъка": 6384,
      "persons": 6385,
      "Agency": 6386,
      "Applause": 6387,
      "енергетиката": 6388,
      "копляскания": 6389,
      "Ръкопляскания": 6390,
      "вените": 6391,
      "мостта": 6392,
      "plom": 6393,
      "постигнато": 6394,
      "използвани": 6395,
      "ратифици": 6396,
      "sche": 6397,
      "inclusion": 6398,
      "ориен": 6399,
      "жертви": 6400,
      "obligations": 6401,
      "земеделски": 6402,
      "fis": 6403,
      "Вре": 6404,
      "зала": 6405,
      "същите": 6406,
      "тича": 6407,
      "excess": 6408,
      "компани": 6409,
      "leaders": 6410,
      "степенно": 6411,
      "събития": 6412,
      "involvement": 6413,
      "занима": 6414,
      "Mon": 6415,
      "Tr": 6416,
      "gl": 6417,
      "vision": 6418,
      "лести": 6419,
      "propose": 6420,
      "conclud": 6421,
      "бив": 6422,
      "managed": 6423,
      "intel": 6424,
      "fied": 6425,
      "fraud": 6426,
      "нуждаят": 6427,
      "dealing": 6428,
      "разбере": 6429,
      "conference": 6430,
      "ides": 6431,
      "венцията": 6432,
      "бяг": 6433,
      "paragraph": 6434,
      "payments": 6435,
      "failure": 6436,
      "регулиране": 6437,
      "влизането": 6438,
      "кни": 6439,
      "нците": 6440,
      "удо": 6441,
      "шна": 6442,
      "citizen": 6443,
      "осигурим": 6444,
      "прозрачността": 6445,
      "заплаха": 6446,
      "Само": 6447,
      "Spain": 6448,
      "suffering": 6449,
      "алтернати": 6450,
      "70": 6451,
      "бло": 6452,
      "goals": 6453,
      "дневния": 6454,
      "включват": 6455,
      "бедствия": 6456,
      "Тук": 6457,
      "предоставянето": 6458,
      "Госпо": 6459,
      "обстоятелства": 6460,
      "EG": 6461,
      "Sing": 6462,
      "негово": 6463,
      "допусти": 6464,
      "rail": 6465,
      "вяр": 6466,
      "diplom": 6467,
      "процедурите": 6468,
      "Irish": 6469,
      "na": 6470,
      "ромите": 6471,
      "леги": 6472,
      "explain": 6473,
      "задължите": 6474,
      "promotion": 6475,
      "обществени": 6476,
      "премахване": 6477,
      "Slo": 6478,
      "чество": 6479,
      "join": 6480,
      "organised": 6481,
      "consistent": 6482,
      "expenditure": 6483,
      "rating": 6484,
      "норма": 6485,
      "коми": 6486,
      "raise": 6487,
      "контекста": 6488,
      "друго": 6489,
      "свобод": 6490,
      "regulatory": 6491,
      "thousands": 6492,
      "данъкоплат": 6493,
      "ked": 6494,
      "пцията": 6495,
      "спре": 6496,
      "кове": 6497,
      "aries": 6498,
      "stim": 6499,
      "изле": 6500,
      "бъдещите": 6501,
      "съмнено": 6502,
      "фал": 6503,
      "бедните": 6504,
      "ангажименти": 6505,
      "регионално": 6506,
      "значителни": 6507,
      "опасе": 6508,
      "Въпросът": 6509,
      "Justice": 6510,
      "Brus": 6511,
      "wants": 6512,
      "income": 6513,
      "редо": 6514,
      "positions": 6515,
      "acknow": 6516,
      "useful": 6517,
      "посочи": 6518,
      "definite": 6519,
      "помогнем": 6520,
      "електрон": 6521,
      "mutual": 6522,
      "Palest": 6523,
      "Brussels": 6524,
      "):": 6525,
      "G20": 6526,
      "nic": 6527,
      "ream": 6528,
      "копа": 6529,
      "asking": 6530,
      "приложе": 6531,
      "била": 6532,
      "accep": 6533,
      "множе": 6534,
      "формули": 6535,
      "content": 6536,
      "изключите": 6537,
      "structures": 6538,
      "improvement": 6539,
      "електроцентра": 6540,
      "truly": 6541,
      "Tunis": 6542,
      "bad": 6543,
      "Зеле": 6544,
      "рюк": 6545,
      "увре": 6546,
      "коли": 6547,
      "доха": 6548,
      "aging": 6549,
      "highly": 6550,
      "получават": 6551,
      "opening": 6552,
      "вътрешен": 6553,
      "растежа": 6554,
      "rapporteurs": 6555,
      "ситуацията": 6556,
      "communities": 6557,
      "универ": 6558,
      "Португа": 6559,
      "zone": 6560,
      "емите": 6561,
      "consen": 6562,
      "остане": 6563,
      "продължат": 6564,
      "повиши": 6565,
      "престъпления": 6566,
      "Chamber": 6567,
      "Pact": 6568,
      "новия": 6569,
      "enjo": 6570,
      "чаваме": 6571,
      "appoint": 6572,
      "трудо": 6573,
      "ефективен": 6574,
      "решенията": 6575,
      "допълнително": 6576,
      "happened": 6577,
      "Balk": 6578,
      "fiscal": 6579,
      "рюксел": 6580,
      "ужа": 6581,
      "erve": 6582,
      "изо": 6583,
      "телите": 6584,
      "acqu": 6585,
      "смени": 6586,
      "човек": 6587,
      "equip": 6588,
      "Canad": 6589,
      "permanent": 6590,
      "ahead": 6591,
      "hol": 6592,
      "oso": 6593,
      "path": 6594,
      "inc": 6595,
      "позна": 6596,
      "кови": 6597,
      "prob": 6598,
      "concent": 6599,
      "Либия": 6600,
      "dio": 6601,
      "научните": 6602,
      "кредити": 6603,
      "фалши": 6604,
      "90": 6605,
      "реформа": 6606,
      "отпуска": 6607,
      "дължи": 6608,
      "вентуа": 6609,
      "приет": 6610,
      "ubl": 6611,
      "views": 6612,
      "Призова": 6613,
      "Програ": 6614,
      "предизвикателство": 6615,
      "coordinated": 6616,
      "постоянно": 6617,
      "акцен": 6618,
      "PE": 6619,
      "erous": 6620,
      "icy": 6621,
      "жаването": 6622,
      "urs": 6623,
      "Без": 6624,
      "demands": 6625,
      "immediately": 6626,
      "абсолютно": 6627,
      "General": 6628,
      "Single": 6629,
      "mac": 6630,
      "Брюксел": 6631,
      "гли": 6632,
      "лива": 6633,
      "листите": 6634,
      "vember": 6635,
      "предвари": 6636,
      "провежда": 6637,
      "November": 6638,
      "exactly": 6639,
      "рените": 6640,
      "визо": 6641,
      "шаването": 6642,
      "speed": 6643,
      "parts": 6644,
      "сенсу": 6645,
      "freedoms": 6646,
      "failed": 6647,
      "потенциал": 6648,
      "Египет": 6649,
      "осе": 6650,
      "uni": 6651,
      "partner": 6652,
      "bank": 6653,
      "SV": 6654,
      "TA": 6655,
      "aign": 6656,
      "Именно": 6657,
      "ато": 6658,
      "thinking": 6659,
      "ноември": 6660,
      "жили": 6661,
      "acter": 6662,
      "legally": 6663,
      "икономическия": 6664,
      "средни": 6665,
      "защитава": 6666,
      "употреба": 6667,
      "refugees": 6668,
      "максима": 6669,
      "ped": 6670,
      "зно": 6671,
      "оку": 6672,
      "ливи": 6673,
      "willing": 6674,
      "stric": 6675,
      "Stability": 6676,
      "comply": 6677,
      "compliance": 6678,
      "aff": 6679,
      "неговата": 6680,
      "извършва": 6681,
      "minority": 6682,
      "Swedish": 6683,
      "експлоатация": 6684,
      "Световната": 6685,
      "Trans": 6686,
      "EI": 6687,
      "понякога": 6688,
      "дем": 6689,
      "микро": 6690,
      "прите": 6691,
      "лова": 6692,
      "urge": 6693,
      "Libya": 6694,
      "евентуа": 6695,
      "нав": 6696,
      "съсе": 6697,
      "chance": 6698,
      "целе": 6699,
      "икономики": 6700,
      "reading": 6701,
      "ктуа": 6702,
      "потребители": 6703,
      "допълнение": 6704,
      "наблюдава": 6705,
      "evaluation": 6706,
      "телство": 6707,
      "pread": 6708,
      "представя": 6709,
      "plants": 6710,
      "вземем": 6711,
      "German": 6712,
      "нарушения": 6713,
      "Сър": 6714,
      "тени": 6715,
      "сии": 6716,
      "lost": 6717,
      "Комисия": 6718,
      "ствената": 6719,
      "Полша": 6720,
      "Many": 6721,
      "Sy": 6722,
      "ер": 6723,
      "падна": 6724,
      "консенсу": 6725,
      "добрите": 6726,
      "струва": 6727,
      "responsibilities": 6728,
      "ресурсите": 6729,
      "протоколи": 6730,
      "създадем": 6731,
      "easy": 6732,
      "характери": 6733,
      "character": 6734,
      "прекъсна": 6735,
      "Португалия": 6736,
      "блъ": 6737,
      "ясен": 6738,
      "никакви": 6739,
      "дио": 6740,
      "спомо": 6741,
      "фик": 6742,
      "voice": 6743,
      "тирани": 6744,
      "внася": 6745,
      "elected": 6746,
      "recognition": 6747,
      "iversity": 6748,
      "campaign": 6749,
      "territorial": 6750,
      "Fore": 6751,
      "изтък": 6752,
      "exception": 6753,
      "outcome": 6754,
      "asters": 6755,
      "начини": 6756,
      "провер": 6757,
      "authority": 6758,
      "истински": 6759,
      "пенсион": 6760,
      "constructive": 6761,
      "External": 6762,
      "предотвратяване": 6763,
      "sexual": 6764,
      "Подкрепям": 6765,
      "Writ": 6766,
      "ease": 6767,
      "лм": 6768,
      "becoming": 6769,
      "значи": 6770,
      "лника": 6771,
      "насоки": 6772,
      "After": 6773,
      "животни": 6774,
      "положително": 6775,
      "Prime": 6776,
      "железо": 6777,
      "consensus": 6778,
      "mal": 6779,
      "задържа": 6780,
      "риб": 6781,
      "превръща": 6782,
      "dead": 6783,
      "границите": 6784,
      "бюджетни": 6785,
      "законодате": 6786,
      "continues": 6787,
      "Afgh": 6788,
      "начало": 6789,
      "намаляването": 6790,
      "lands": 6791,
      "неговото": 6792,
      "Written": 6793,
      "flow": 6794,
      "Шве": 6795,
      "remo": 6796,
      "бюджети": 6797,
      "helping": 6798,
      "corruption": 6799,
      "промишлеността": 6800,
      "спазват": 6801,
      "изявления": 6802,
      "партии": 6803,
      "Сърбия": 6804,
      "Ladies": 6805,
      "ражда": 6806,
      "transactions": 6807,
      "factor": 6808,
      "custo": 6809,
      "intervention": 6810,
      "стратегически": 6811,
      "Policy": 6812,
      "изборите": 6813,
      "предотврати": 6814,
      "продуктите": 6815,
      "дия": 6816,
      "нг": 6817,
      "severe": 6818,
      "politic": 6819,
      "resolve": 6820,
      "разширяване": 6821,
      "Poland": 6822,
      "sensitive": 6823,
      "комента": 6824,
      "лично": 6825,
      "disasters": 6826,
      "стъпи": 6827,
      "budgets": 6828,
      "surance": 6829,
      "crimes": 6830,
      "успешно": 6831,
      "Belg": 6832,
      "granted": 6833,
      "flexibility": 6834,
      "пренебрег": 6835,
      "Foreign": 6836,
      "hous": 6837,
      "вло": 6838,
      "тю": 6839,
      "наясно": 6840,
      "режи": 6841,
      "stated": 6842,
      "контекст": 6843,
      "средно": 6844,
      "народна": 6845,
      "законодателни": 6846,
      "carbon": 6847,
      "външни": 6848,
      "десети": 6849,
      "фактор": 6850,
      "засилване": 6851,
      "Съюзът": 6852,
      "Haiti": 6853,
      "научноизследовател": 6854,
      "фгани": 6855,
      "нал": 6856,
      "onia": 6857,
      "near": 6858,
      "plant": 6859,
      "continuing": 6860,
      "ръководите": 6861,
      "ugal": 6862,
      "later": 6863,
      "sto": 6864,
      "pression": 6865,
      "елемент": 6866,
      "глобализацията": 6867,
      "causes": 6868,
      "innovative": 6869,
      "Portugal": 6870,
      "Mal": 6871,
      "внаш": 6872,
      "риска": 6873,
      "cohe": 6874,
      "vig": 6875,
      "основна": 6876,
      "putting": 6877,
      "месец": 6878,
      "barri": 6879,
      "Amend": 6880,
      "оправда": 6881,
      "Organisation": 6882,
      "Госпожи": 6883,
      "показват": 6884,
      "зат": 6885,
      "tocol": 6886,
      "чеството": 6887,
      "трябвало": 6888,
      "пис": 6889,
      "expected": 6890,
      "Някои": 6891,
      "administration": 6892,
      "Energy": 6893,
      "incent": 6894,
      "enary": 6895,
      "изпит": 6896,
      "ряват": 6897,
      "trary": 6898,
      "знаят": 6899,
      "lled": 6900,
      "влетво": 6901,
      "намеса": 6902,
      "търговска": 6903,
      "международно": 6904,
      "methods": 6905,
      "заслужава": 6906,
      "spirit": 6907,
      "гръ": 6908,
      "яс": 6909,
      "кори": 6910,
      "карта": 6911,
      "curren": 6912,
      "строите": 6913,
      "organisation": 6914,
      "choice": 6915,
      "recognised": 6916,
      "липса": 6917,
      "shared": 6918,
      "Accord": 6919,
      "convinced": 6920,
      "skill": 6921,
      "статисти": 6922,
      "thereby": 6923,
      "информацията": 6924,
      "interpre": 6925,
      "половете": 6926,
      "holders": 6927,
      "загриженост": 6928,
      "фганистан": 6929,
      "тски": 6930,
      "ush": 6931,
      "exclu": 6932,
      "ired": 6933,
      "изискват": 6934,
      "stronger": 6935,
      "агенция": 6936,
      "функционирането": 6937,
      "Писмени": 6938,
      "Afghan": 6939,
      "fare": 6940,
      "тари": 6941,
      "Пакистан": 6942,
      "планове": 6943,
      "определи": 6944,
      "твърдо": 6945,
      "бедност": 6946,
      "конкурентоспособност": 6947,
      "етике": 6948,
      "constant": 6949,
      "Разискването": 6950,
      "Lith": 6951,
      "ВП": 6952,
      "жават": 6953,
      "приета": 6954,
      "former": 6955,
      "приемане": 6956,
      "signed": 6957,
      "bringing": 6958,
      "Alliance": 6959,
      "Serbia": 6960,
      "probably": 6961,
      "Lithu": 6962,
      "ude": 6963,
      "затру": 6964,
      "рие": 6965,
      "While": 6966,
      "tests": 6967,
      "Съгласен": 6968,
      "liberalisation": 6969,
      "analysis": 6970,
      "конструкти": 6971,
      "rid": 6972,
      "source": 6973,
      "помни": 6974,
      "обви": 6975,
      "скъ": 6976,
      "телното": 6977,
      "spect": 6978,
      "numerous": 6979,
      "22": 6980,
      "bri": 6981,
      "тията": 6982,
      "чеш": 6983,
      "четвър": 6984,
      "преце": 6985,
      "привле": 6986,
      "ordinary": 6987,
      "overcome": 6988,
      "политическата": 6989,
      "международна": 6990,
      "надежда": 6991,
      "зачитане": 6992,
      "FI": 6993,
      "hit": 6994,
      "наложи": 6995,
      "направени": 6996,
      "прехвър": 6997,
      "whom": 6998,
      "предстоя": 6999,
      "obst": 7000,
      "signal": 7001,
      "ситуации": 7002,
      "очакваме": 7003,
      "рейтин": 7004,
      "затрудне": 7005,
      "sw": 7006,
      "ада": 7007,
      "дадат": 7008,
      "enorm": 7009,
      "union": 7010,
      "terday": 7011,
      "фиска": 7012,
      "sometimes": 7013,
      "помогнат": 7014,
      "payment": 7015,
      "spent": 7016,
      "идея": 7017,
      "никакъв": 7018,
      "obviously": 7019,
      "Органи": 7020,
      "излезе": 7021,
      "Oc": 7022,
      "ити": 7023,
      "плена": 7024,
      "ментът": 7025,
      "доклади": 7026,
      "compens": 7027,
      "Ста": 7028,
      "рад": 7029,
      "несо": 7030,
      "кара": 7031,
      "concept": 7032,
      "правно": 7033,
      "feed": 7034,
      "African": 7035,
      "закрила": 7036,
      "освобождаване": 7037,
      "биологи": 7038,
      "преразглеждане": 7039,
      "Грузия": 7040,
      "spending": 7041,
      "противоречи": 7042,
      "възнамерява": 7043,
      "еже": 7044,
      "осве": 7045,
      "век": 7046,
      "изказва": 7047,
      "разкри": 7048,
      "lower": 7049,
      "fulfil": 7050,
      "гаранции": 7051,
      "влезе": 7052,
      "свързан": 7053,
      "насърчаването": 7054,
      "изготвянето": 7055,
      "наказание": 7056,
      "отбеляза": 7057,
      "simplif": 7058,
      "happy": 7059,
      "Georgia": 7060,
      "дра": 7061,
      "оказва": 7062,
      "унищо": 7063,
      "проме": 7064,
      "продовол": 7065,
      "comments": 7066,
      "plenary": 7067,
      "preci": 7068,
      "определят": 7069,
      "element": 7070,
      "сериозен": 7071,
      "открито": 7072,
      "effectiveness": 7073,
      "тежест": 7074,
      "лошо": 7075,
      "obstac": 7076,
      "актове": 7077,
      "пите": 7078,
      "got": 7079,
      "max": 7080,
      "votes": 7081,
      "условие": 7082,
      "membership": 7083,
      "sustainability": 7084,
      "готови": 7085,
      "възстановяването": 7086,
      "happening": 7087,
      "Хаити": 7088,
      "свидетели": 7089,
      "разнообразие": 7090,
      "Държавите": 7091,
      "fuel": 7092,
      "НА": 7093,
      "веще": 7094,
      "допуска": 7095,
      "гата": 7096,
      "държавните": 7097,
      "проблемът": 7098,
      "Република": 7099,
      "дружествата": 7100,
      "Дей": 7101,
      "обхваща": 7102,
      "professional": 7103,
      "Цен": 7104,
      "react": 7105,
      "защите": 7106,
      "ours": 7107,
      "конта": 7108,
      "трудности": 7109,
      "Turk": 7110,
      "извънред": 7111,
      "substant": 7112,
      "неотло": 7113,
      "заместник": 7114,
      "осведо": 7115,
      "26": 7116,
      "OL": 7117,
      "sound": 7118,
      "вти": 7119,
      "staff": 7120,
      "rench": 7121,
      "mainly": 7122,
      "informed": 7123,
      "starting": 7124,
      "религио": 7125,
      "AS": 7126,
      "By": 7127,
      "Га": 7128,
      "Фи": 7129,
      "Япо": 7130,
      "етни": 7131,
      "чването": 7132,
      "advoc": 7133,
      "определяне": 7134,
      "rightly": 7135,
      "желае": 7136,
      "огромни": 7137,
      "обърна": 7138,
      "British": 7139,
      "НАТО": 7140,
      "Never": 7141,
      "pun": 7142,
      "Бо": 7143,
      "Осно": 7144,
      "мнението": 7145,
      "тния": 7146,
      "швед": 7147,
      "темата": 7148,
      "носа": 7149,
      "чера": 7150,
      "договори": 7151,
      "tex": 7152,
      "marks": 7153,
      "accounts": 7154,
      "territory": 7155,
      "възползват": 7156,
      "замърся": 7157,
      "won": 7158,
      "справим": 7159,
      "inf": 7160,
      "тон": 7161,
      "носи": 7162,
      "препят": 7163,
      "bear": 7164,
      "преду": 7165,
      "ложат": 7166,
      "чака": 7167,
      "Third": 7168,
      "dow": 7169,
      "speaking": 7170,
      "protected": 7171,
      "връзки": 7172,
      "точки": 7173,
      "присъства": 7174,
      "гер": 7175,
      "excessive": 7176,
      "удовлетво": 7177,
      "нации": 7178,
      "последва": 7179,
      "избра": 7180,
      "разчита": 7181,
      "preced": 7182,
      "ходите": 7183,
      "standing": 7184,
      "измененията": 7185,
      "Предвид": 7186,
      "култура": 7187,
      "буд": 7188,
      "fighting": 7189,
      "равенство": 7190,
      "улесни": 7191,
      "спекула": 7192,
      "Kore": 7193,
      "ping": 7194,
      "uct": 7195,
      "лина": 7196,
      "слуша": 7197,
      "плащания": 7198,
      "understanding": 7199,
      "conflicts": 7200,
      "становището": 7201,
      "taxpayers": 7202,
      "According": 7203,
      "ood": 7204,
      "round": 7205,
      "дения": 7206,
      "ilateral": 7207,
      "imports": 7208,
      "2014": 7209,
      "безпо": 7210,
      "споразуменията": 7211,
      "resolutions": 7212,
      "намерим": 7213,
      "Charter": 7214,
      "значителен": 7215,
      "мрежи": 7216,
      "сигнал": 7217,
      "консенсус": 7218,
      "адап": 7219,
      "Япония": 7220,
      "направя": 7221,
      "даване": 7222,
      "попу": 7223,
      "предстои": 7224,
      "гласувам": 7225,
      "тенден": 7226,
      "демократите": 7227,
      "съгласни": 7228,
      "settle": 7229,
      "considerable": 7230,
      "ядрената": 7231,
      "ethnic": 7232,
      "вин": 7233,
      "предприети": 7234,
      "ideas": 7235,
      "greatest": 7236,
      "firstly": 7237,
      "доброво": 7238,
      "устойчив": 7239,
      "включи": 7240,
      "изпраща": 7241,
      "президента": 7242,
      "AL": 7243,
      "положи": 7244,
      "мое": 7245,
      "ports": 7246,
      "въздържа": 7247,
      "казах": 7248,
      "програмите": 7249,
      "welfare": 7250,
      "бург": 7251,
      "dimension": 7252,
      "PPE": 7253,
      "inian": 7254,
      "record": 7255,
      "itude": 7256,
      "преко": 7257,
      "contrary": 7258,
      "ury": 7259,
      "изток": 7260,
      "плащане": 7261,
      "селскостопански": 7262,
      "sides": 7263,
      "Green": 7264,
      "ken": 7265,
      "outhern": 7266,
      "парите": 7267,
      "police": 7268,
      "финансов": 7269,
      "ефект": 7270,
      "consumption": 7271,
      "обществените": 7272,
      "strategies": 7273,
      "NAT": 7274,
      "Sum": 7275,
      "temp": 7276,
      "Смет": 7277,
      "мните": 7278,
      "окто": 7279,
      "оказа": 7280,
      "сблъ": 7281,
      "никой": 7282,
      "отбра": 7283,
      "Why": 7284,
      "способността": 7285,
      "planning": 7286,
      "дискриминацията": 7287,
      "exploitation": 7288,
      "субсиди": 7289,
      "enjoy": 7290,
      "NATO": 7291,
      "Bud": 7292,
      "ER": 7293,
      "Ар": 7294,
      "напомня": 7295,
      "резер": 7296,
      "коре": 7297,
      "лявам": 7298,
      "ждава": 7299,
      "directives": 7300,
      "buildings": 7301,
      "власт": 7302,
      "elimin": 7303,
      "октомври": 7304,
      "поу": 7305,
      "tober": 7306,
      "тици": 7307,
      "свободно": 7308,
      "свързана": 7309,
      "Макар": 7310,
      "действаме": 7311,
      "подходящо": 7312,
      "significantly": 7313,
      "Canada": 7314,
      "October": 7315,
      "eco": 7316,
      "йте": 7317,
      "itime": 7318,
      "abol": 7319,
      "сигурни": 7320,
      "anything": 7321,
      "Канада": 7322,
      "радио": 7323,
      "собствени": 7324,
      "активи": 7325,
      "contains": 7326,
      "закона": 7327,
      "краткосро": 7328,
      "credibility": 7329,
      "Европейска": 7330,
      "гъвкавост": 7331,
      "Програмата": 7332,
      "bed": 7333,
      "ур": 7334,
      "eder": 7335,
      "макро": 7336,
      "мину": 7337,
      "deg": 7338,
      "катастро": 7339,
      "certainty": 7340,
      "occas": 7341,
      "addressed": 7342,
      "технически": 7343,
      "study": 7344,
      "операции": 7345,
      "железопът": 7346,
      "Сметната": 7347,
      "Des": 7348,
      "entially": 7349,
      "ilst": 7350,
      "unable": 7351,
      "option": 7352,
      "supports": 7353,
      "различия": 7354,
      "resolved": 7355,
      "причините": 7356,
      "желание": 7357,
      "приоритетите": 7358,
      "Туни": 7359,
      "simple": 7360,
      "изграждането": 7361,
      "отнема": 7362,
      "ls": 7363,
      "тинен": 7364,
      "forth": 7365,
      "самите": 7366,
      "шена": 7367,
      "tection": 7368,
      "питам": 7369,
      "известна": 7370,
      "превърне": 7371,
      "чиято": 7372,
      "Nevertheless": 7373,
      "Fra": 7374,
      "French": 7375,
      "rich": 7376,
      "апри": 7377,
      "ирланд": 7378,
      "thought": 7379,
      "oud": 7380,
      "тие": 7381,
      "суве": 7382,
      "основната": 7383,
      "шават": 7384,
      "Защо": 7385,
      "здравни": 7386,
      "свързано": 7387,
      "capable": 7388,
      "културата": 7389,
      "подходящ": 7390,
      "нейните": 7391,
      "критериите": 7392,
      "анализ": 7393,
      "barriers": 7394,
      "Организацията": 7395,
      "28": 7396,
      "31": 7397,
      "Global": 7398,
      "печат": 7399,
      "единен": 7400,
      "потребле": 7401,
      "collective": 7402,
      "твор": 7403,
      "електри": 7404,
      "обърне": 7405,
      "конфликти": 7406,
      "Even": 7407,
      "Ду": 7408,
      "мира": 7409,
      "избяг": 7410,
      "станат": 7411,
      "купу": 7412,
      "rug": 7413,
      "премахването": 7414,
      "заявя": 7415,
      "appeal": 7416,
      "функционира": 7417,
      "четене": 7418,
      "submitted": 7419,
      "deliver": 7420,
      "ultimately": 7421,
      "Тунис": 7422,
      "tions": 7423,
      "даваме": 7424,
      "рието": 7425,
      "commission": 7426,
      "вярно": 7427,
      "континен": 7428,
      "членът": 7429,
      "ръка": 7430,
      "changed": 7431,
      "engage": 7432,
      "drawn": 7433,
      "identify": 7434,
      "Russian": 7435,
      "поръчки": 7436,
      "affect": 7437,
      "зачитането": 7438,
      "tourism": 7439,
      "Summit": 7440,
      "вследствие": 7441,
      "трите": 7442,
      "stead": 7443,
      "обору": 7444,
      "зона": 7445,
      "typ": 7446,
      "election": 7447,
      "дадена": 7448,
      "храна": 7449,
      "Следващата": 7450,
      "КТ": 7451,
      "съвър": 7452,
      "pros": 7453,
      "следи": 7454,
      "борим": 7455,
      "Гласуването": 7456,
      "подписа": 7457,
      "Правилника": 7458,
      "GDP": 7459,
      "cup": 7460,
      "обли": 7461,
      "предполага": 7462,
      "complain": 7463,
      "estim": 7464,
      "фикация": 7465,
      "easier": 7466,
      "honourable": 7467,
      "fill": 7468,
      "rs": 7469,
      "съобра": 7470,
      "observ": 7471,
      "Запад": 7472,
      "продължите": 7473,
      "измерение": 7474,
      "Имам": 7475,
      "Имаме": 7476,
      "месеци": 7477,
      "ризъм": 7478,
      "definitely": 7479,
      "currency": 7480,
      "Apr": 7481,
      "reference": 7482,
      "ancing": 7483,
      "таря": 7484,
      "реш": 7485,
      "отправя": 7486,
      "stable": 7487,
      "lob": 7488,
      "чак": 7489,
      "urally": 7490,
      "суро": 7491,
      "odiversity": 7492,
      "adopting": 7493,
      "negotiating": 7494,
      "данъци": 7495,
      "revision": 7496,
      "condemn": 7497,
      "британ": 7498,
      "macro": 7499,
      "април": 7500,
      "April": 7501,
      "oration": 7502,
      "vered": 7503,
      "облек": 7504,
      "worked": 7505,
      "Поли": 7506,
      "взети": 7507,
      "дателят": 7508,
      "съвме": 7509,
      "Given": 7510,
      "div": 7511,
      "ib": 7512,
      "nual": 7513,
      "лиген": 7514,
      "облагане": 7515,
      "предпаз": 7516,
      "търпе": 7517,
      "produced": 7518,
      "boost": 7519,
      "бях": 7520,
      "surve": 7521,
      "истинска": 7522,
      "отговарят": 7523,
      "exercise": 7524,
      "сдел": 7525,
      "напра": 7526,
      "rep": 7527,
      "abstain": 7528,
      "getting": 7529,
      "buds": 7530,
      "институция": 7531,
      "official": 7532,
      "networks": 7533,
      "attacks": 7534,
      "милиарда": 7535,
      "отразява": 7536,
      "будс": 7537,
      "prosper": 7538,
      "75": 7539,
      "Ти": 7540,
      "пръ": 7541,
      "щията": 7542,
      "тора": 7543,
      "isive": 7544,
      "undred": 7545,
      "Invest": 7546,
      "едино": 7547,
      "disease": 7548,
      "ползи": 7549,
      "самото": 7550,
      "transition": 7551,
      "bru": 7552,
      "увеличава": 7553,
      "структура": 7554,
      "requirement": 7555,
      "банките": 7556,
      "участници": 7557,
      "ront": 7558,
      "enormous": 7559,
      "ira": 7560,
      "ПГ": 7561,
      "току": 7562,
      "интелиген": 7563,
      "помощи": 7564,
      "Предложението": 7565,
      "енергийните": 7566,
      "Greek": 7567,
      "Вече": 7568,
      "Koso": 7569,
      "Ну": 7570,
      "enabl": 7571,
      "силен": 7572,
      "допус": 7573,
      "лоя": 7574,
      "чии": 7575,
      "Косово": 7576,
      "ending": 7577,
      "Позво": 7578,
      "complic": 7579,
      "контрола": 7580,
      "encouraging": 7581,
      "obligation": 7582,
      "медиите": 7583,
      "Същевременно": 7584,
      "referendu": 7585,
      "pill": 7586,
      "phas": 7587,
      "sal": 7588,
      "оке": 7589,
      "lect": 7590,
      "ляването": 7591,
      "Например": 7592,
      "първи": 7593,
      "остават": 7594,
      "идеи": 7595,
      "insist": 7596,
      "associated": 7597,
      "печал": 7598,
      "vehicles": 7599,
      "Middle": 7600,
      "хва": 7601,
      "immigrants": 7602,
      "oples": 7603,
      "que": 7604,
      "спече": 7605,
      "Независимо": 7606,
      "разлика": 7607,
      "board": 7608,
      "talks": 7609,
      "Общата": 7610,
      "courage": 7611,
      "намира": 7612,
      "пакета": 7613,
      "appear": 7614,
      "ЕФПГ": 7615,
      "Fe": 7616,
      "вред": 7617,
      "enlarge": 7618,
      "лича": 7619,
      "quo": 7620,
      "работно": 7621,
      "отговорни": 7622,
      "финансовия": 7623,
      "демократични": 7624,
      "violations": 7625,
      "огромно": 7626,
      "председателят": 7627,
      "президент": 7628,
      "restrictions": 7629,
      "publ": 7630,
      "Близ": 7631,
      "йски": 7632,
      "несъмнено": 7633,
      "ift": 7634,
      "2000": 7635,
      "разумно": 7636,
      "тексти": 7637,
      "сериозна": 7638,
      "търговските": 7639,
      "bourg": 7640,
      "instance": 7641,
      "firmly": 7642,
      "предизвикателствата": 7643,
      "географ": 7644,
      "manufacture": 7645,
      "иск": 7646,
      "procure": 7647,
      "циф": 7648,
      "щения": 7649,
      "unfair": 7650,
      "необходим": 7651,
      "източник": 7652,
      "операти": 7653,
      "Председателят": 7654,
      "electric": 7655,
      "materials": 7656,
      "geograph": 7657,
      "gap": 7658,
      "late": 7659,
      "Християн": 7660,
      "дване": 7661,
      "сцена": 7662,
      "ouble": 7663,
      "местни": 7664,
      "осигурят": 7665,
      "draf": 7666,
      "живее": 7667,
      "малцинства": 7668,
      "Bo": 7669,
      "Mold": 7670,
      "millions": 7671,
      "сложи": 7672,
      "peoples": 7673,
      "ria": 7674,
      "инди": 7675,
      "търа": 7676,
      "crises": 7677,
      "controls": 7678,
      "младе": 7679,
      "participate": 7680,
      "здравеопазването": 7681,
      "чувствите": 7682,
      "office": 7683,
      "доставки": 7684,
      "перспектива": 7685,
      "Moldov": 7686,
      "Bra": 7687,
      "Os": 7688,
      "БВП": 7689,
      "йни": 7690,
      "чват": 7691,
      "ъг": 7692,
      "теле": 7693,
      "ster": 7694,
      "мнозинството": 7695,
      "mil": 7696,
      "Вя": 7697,
      "Южна": 7698,
      "class": 7699,
      "gures": 7700,
      "поставят": 7701,
      "благодарение": 7702,
      "Fundamental": 7703,
      "occup": 7704,
      "зависимост": 7705,
      "repeat": 7706,
      "установяване": 7707,
      "Страте": 7708,
      "нда": 7709,
      "сията": 7710,
      "oness": 7711,
      "рекла": 7712,
      "непрекъсна": 7713,
      "пата": 7714,
      "палести": 7715,
      "живя": 7716,
      "социалистите": 7717,
      "системите": 7718,
      "основана": 7719,
      "figures": 7720,
      "involving": 7721,
      "Baroness": 7722,
      "започнем": 7723,
      "Международния": 7724,
      "стандартите": 7725,
      "уврежда": 7726,
      "Danu": 7727,
      "NG": 7728,
      "преход": 7729,
      "приобща": 7730,
      "стигна": 7731,
      "debates": 7732,
      "justment": 7733,
      "respected": 7734,
      "регионалните": 7735,
      "reaching": 7736,
      "спазването": 7737,
      "parliaments": 7738,
      "единственият": 7739,
      "enforcement": 7740,
      "EIB": 7741,
      "Kosovo": 7742,
      "Позволете": 7743,
      "Danube": 7744,
      "Слу": 7745,
      "дъ": 7746,
      "отваря": 7747,
      "крачка": 7748,
      "igno": 7749,
      "банко": 7750,
      "communic": 7751,
      "земедели": 7752,
      "екологични": 7753,
      "reflect": 7754,
      "evalu": 7755,
      "attempt": 7756,
      "orient": 7757,
      "Every": 7758,
      "earli": 7759,
      "стрия": 7760,
      "ici": 7761,
      "strengthened": 7762,
      "поемат": 7763,
      "положителен": 7764,
      "satisfact": 7765,
      "Tunisia": 7766,
      "budsman": 7767,
      "restric": 7768,
      "стъл": 7769,
      "пребива": 7770,
      "sec": 7771,
      "конце": 7772,
      "Нещо": 7773,
      "финансово": 7774,
      "европейците": 7775,
      "колекти": 7776,
      "насочена": 7777,
      "крайно": 7778,
      "emphasis": 7779,
      "засегнатите": 7780,
      "keeping": 7781,
      "judicial": 7782,
      "доставчи": 7783,
      "Индия": 7784,
      "urgently": 7785,
      "dign": 7786,
      "ctic": 7787,
      "принадле": 7788,
      "няваме": 7789,
      "твърди": 7790,
      "individuals": 7791,
      "имигранти": 7792,
      "procurement": 7793,
      "Cy": 7794,
      "gg": 7795,
      "наслед": 7796,
      "непо": 7797,
      "merely": 7798,
      "писа": 7799,
      "феде": 7800,
      "affor": 7801,
      "подобно": 7802,
      "случаите": 7803,
      "публични": 7804,
      "allows": 7805,
      "allowing": 7806,
      "обекти": 7807,
      "biodiversity": 7808,
      "омбудс": 7809,
      "отбележа": 7810,
      "dangerous": 7811,
      "savings": 7812,
      "испанското": 7813,
      "Amendment": 7814,
      "brief": 7815,
      "чиито": 7816,
      "Християндемократи": 7817,
      "Aust": 7818,
      "gence": 7819,
      "hundred": 7820,
      "zil": 7821,
      "Ан": 7822,
      "Афганистан": 7823,
      "ум": 7824,
      "тация": 7825,
      "новото": 7826,
      "серва": 7827,
      "covered": 7828,
      "factors": 7829,
      "банки": 7830,
      "състоянието": 7831,
      "граждански": 7832,
      "Чеш": 7833,
      "риболов": 7834,
      "delegation": 7835,
      "повдигна": 7836,
      "жизненоважно": 7837,
      "статут": 7838,
      "bruary": 7839,
      "February": 7840,
      "wat": 7841,
      "въд": 7842,
      "evidence": 7843,
      "Наистина": 7844,
      "decisive": 7845,
      "gradu": 7846,
      "Мол": 7847,
      "плащат": 7848,
      "consultation": 7849,
      "законодателен": 7850,
      "maximum": 7851,
      "Полити": 7852,
      "iation": 7853,
      "вру": 7854,
      "дят": 7855,
      "нер": 7856,
      "февру": 7857,
      "разисквания": 7858,
      "improvements": 7859,
      "отделни": 7860,
      "harm": 7861,
      "солидарността": 7862,
      "trading": 7863,
      "emergency": 7864,
      "America": 7865,
      "съседство": 7866,
      "консултации": 7867,
      "заболява": 7868,
      "Framework": 7869,
      "Om": 7870,
      "ИС": 7871,
      "същата": 7872,
      "мора": 7873,
      "forman": 7874,
      "aced": 7875,
      "самостоя": 7876,
      "seeking": 7877,
      "методи": 7878,
      "оценката": 7879,
      "забрана": 7880,
      "независимост": 7881,
      "укрепи": 7882,
      "awareness": 7883,
      "преодоле": 7884,
      "Slov": 7885,
      "Despite": 7886,
      "Brazil": 7887,
      "Col": 7888,
      "push": 7889,
      "repre": 7890,
      "ству": 7891,
      "пото": 7892,
      "мото": 7893,
      "secre": 7894,
      "urban": 7895,
      "къс": 7896,
      "intention": 7897,
      "2015": 7898,
      "европейци": 7899,
      "чуж": 7900,
      "висока": 7901,
      "shadow": 7902,
      "фактори": 7903,
      "Baltic": 7904,
      "reprene": 7905,
      "don": 7906,
      "жните": 7907,
      "квот": 7908,
      "награ": 7909,
      "ниски": 7910,
      "ствията": 7911,
      "confir": 7912,
      "lights": 7913,
      "verage": 7914,
      "appreci": 7915,
      "2002": 7916,
      "Protection": 7917,
      "meetings": 7918,
      "Region": 7919,
      "могло": 7920,
      "имиграция": 7921,
      "break": 7922,
      "правосъдие": 7923,
      "leadership": 7924,
      "февруари": 7925,
      "Факт": 7926,
      "auto": 7927,
      "криване": 7928,
      "анс": 7929,
      "highest": 7930,
      "banking": 7931,
      "Only": 7932,
      "допринася": 7933,
      "капацитет": 7934,
      "Balkans": 7935,
      "Gaz": 7936,
      "bol": 7937,
      "tro": 7938,
      "съчета": 7939,
      "някой": 7940,
      "cooperate": 7941,
      "работна": 7942,
      "важността": 7943,
      "мерика": 7944,
      "правомощията": 7945,
      "diversity": 7946,
      "американски": 7947,
      "модерни": 7948,
      "distribution": 7949,
      "Дунав": 7950,
      "неблагоприят": 7951,
      "сет": 7952,
      "общия": 7953,
      "ival": 7954,
      "глас": 7955,
      "myself": 7956,
      "транспони": 7957,
      "space": 7958,
      "загуби": 7959,
      "approval": 7960,
      "конвенция": 7961,
      "India": 7962,
      "неприемливо": 7963,
      "океан": 7964,
      "увреждания": 7965,
      "Молдова": 7966,
      "Икономи": 7967,
      "Очевидно": 7968,
      "аре": 7969,
      "erves": 7970,
      "неравно": 7971,
      "stabil": 7972,
      "прова": 7973,
      "сами": 7974,
      "самата": 7975,
      "жал": 7976,
      "тират": 7977,
      "operating": 7978,
      "started": 7979,
      "вътрешни": 7980,
      "широк": 7981,
      "Конвенцията": 7982,
      "ronic": 7983,
      "largest": 7984,
      "обвързва": 7985,
      "опростяване": 7986,
      "ваните": 7987,
      "asks": 7988,
      "ched": 7989,
      "loye": 7990,
      "подкопа": 7991,
      "казваме": 7992,
      "decent": 7993,
      "сегашната": 7994,
      "applies": 7995,
      "interesting": 7996,
      "компроми": 7997,
      "общественото": 7998,
      "препоръки": 7999,
      "служители": 8000,
      "ALDE": 8001,
      "degree": 8002,
      "win": 8003,
      "двата": 8004,
      "нка": 8005,
      "stay": 8006,
      "прието": 8007,
      "стига": 8008,
      "цената": 8009,
      "fear": 8010,
      "worse": 8011,
      "знам": 8012,
      "дневен": 8013,
      "redund": 8014,
      "решен": 8015,
      "трафика": 8016,
      "увеличение": 8017,
      "демократична": 8018,
      "изготви": 8019,
      "алианс": 8020,
      "разширяването": 8021,
      "yesterday": 8022,
      "equipment": 8023,
      "politicians": 8024,
      "Близкия": 8025,
      "Yet": 8026,
      "Една": 8027,
      "френ": 8028,
      "ality": 8029,
      "дой": 8030,
      "гий": 8031,
      "спест": 8032,
      "водят": 8033,
      "включването": 8034,
      "followed": 8035,
      "Мога": 8036,
      "preventing": 8037,
      "изразяване": 8038,
      "извършват": 8039,
      "закони": 8040,
      "безработица": 8041,
      "заинтересовани": 8042,
      "flood": 8043,
      "enlargement": 8044,
      "afford": 8045,
      "Ombudsman": 8046,
      "formance": 8047,
      "вди": 8048,
      "ang": 8049,
      "ващо": 8050,
      "пока": 8051,
      "olution": 8052,
      "последната": 8053,
      "reasonable": 8054,
      "призоваваме": 8055,
      "годишни": 8056,
      "опасност": 8057,
      "Средиземномо": 8058,
      "множество": 8059,
      "електроцентрали": 8060,
      "skills": 8061,
      "Slovak": 8062,
      "ancial": 8063,
      "тий": 8064,
      "излиза": 8065,
      "rab": 8066,
      "changing": 8067,
      "employe": 8068,
      "realise": 8069,
      "задължение": 8070,
      "Изто": 8071,
      "милиони": 8072,
      "регулато": 8073,
      "supervis": 8074,
      "ЕИБ": 8075,
      "диокси": 8076,
      "вещества": 8077,
      "Америка": 8078,
      "мера": 8079,
      "entreprene": 8080,
      "ste": 8081,
      "пропор": 8082,
      "feat": 8083,
      "ivity": 8084,
      "доведат": 8085,
      "изпълнява": 8086,
      "цялото": 8087,
      "sequently": 8088,
      "опитва": 8089,
      "harmonisation": 8090,
      "tools": 8091,
      "неотдавнаш": 8092,
      "medicines": 8093,
      "Време": 8094,
      "университе": 8095,
      "Вместо": 8096,
      "гно": 8097,
      "одобри": 8098,
      "фу": 8099,
      "reven": 8100,
      "изразход": 8101,
      "предпо": 8102,
      "united": 8103,
      "ложен": 8104,
      "viation": 8105,
      "series": 8106,
      "обича": 8107,
      "собственост": 8108,
      "Бар": 8109,
      "introducing": 8110,
      "култури": 8111,
      "противопоставя": 8112,
      "здравеопазване": 8113,
      "семейства": 8114,
      "Съществу": 8115,
      "exclusion": 8116,
      "безпокой": 8117,
      "катастрофа": 8118,
      "Mone": 8119,
      "покаже": 8120,
      "циви": 8121,
      "lose": 8122,
      "opposed": 8123,
      "interested": 8124,
      "valu": 8125,
      "обект": 8126,
      "Liber": 8127,
      "places": 8128,
      "allocated": 8129,
      "deficit": 8130,
      "Such": 8131,
      "sort": 8132,
      "ongoing": 8133,
      "рира": 8134,
      "пания": 8135,
      "ades": 8136,
      "следните": 8137,
      "ктно": 8138,
      "равнища": 8139,
      "позволим": 8140,
      "огромна": 8141,
      "централна": 8142,
      "Харта": 8143,
      "flexible": 8144,
      "дипломати": 8145,
      "Още": 8146,
      "неу": 8147,
      "orary": 8148,
      "обре": 8149,
      "биват": 8150,
      "exe": 8151,
      "Коре": 8152,
      "continent": 8153,
      "доволен": 8154,
      "Искаме": 8155,
      "offers": 8156,
      "abilities": 8157,
      "blue": 8158,
      "bor": 8159,
      "даж": 8160,
      "рението": 8161,
      "сту": 8162,
      "teed": 8163,
      "можете": 8164,
      "maritime": 8165,
      "competence": 8166,
      "желанието": 8167,
      "поема": 8168,
      "персо": 8169,
      "превозни": 8170,
      "освобождаването": 8171,
      "29": 8172,
      "IS": 8173,
      "nes": 8174,
      "Ку": 8175,
      "тъл": 8176,
      "повод": 8177,
      "дете": 8178,
      "belong": 8179,
      "conver": 8180,
      "rain": 8181,
      "moving": 8182,
      "кратно": 8183,
      "искали": 8184,
      "правилното": 8185,
      "спешно": 8186,
      "желаят": 8187,
      "dependent": 8188,
      "решаването": 8189,
      "нарушение": 8190,
      "Arctic": 8191,
      "значителна": 8192,
      "договор": 8193,
      "проучване": 8194,
      "subsidi": 8195,
      "ACP": 8196,
      "естествено": 8197,
      "legitimate": 8198,
      "Относно": 8199,
      "EGF": 8200,
      "фалшифици": 8201,
      "referendum": 8202,
      "Moldova": 8203,
      "изте": 8204,
      "respective": 8205,
      "suitable": 8206,
      "предприемем": 8207,
      "sole": 8208,
      "abuse": 8209,
      "подкрепе": 8210,
      "finances": 8211,
      "justified": 8212,
      "присъедини": 8213,
      "огромен": 8214,
      "престъпност": 8215,
      "recommendation": 8216,
      "industries": 8217,
      "списъ": 8218,
      "човешки": 8219,
      "лизъм": 8220,
      "determination": 8221,
      "Afghanistan": 8222,
      "съвършен": 8223,
      "очерта": 8224,
      "христия": 8225,
      "неф": 8226,
      "деба": 8227,
      "dev": 8228,
      "delight": 8229,
      "imposed": 8230,
      "heav": 8231,
      "Ital": 8232,
      "служи": 8233,
      "operations": 8234,
      "подобряването": 8235,
      "says": 8236,
      "realistic": 8237,
      "surpr": 8238,
      "каквито": 8239,
      "агенциите": 8240,
      "substantial": 8241,
      "Investment": 8242,
      "Ano": 8243,
      "Her": 8244,
      "frequ": 8245,
      "реце": 8246,
      "permit": 8247,
      "задължително": 8248,
      "задълженията": 8249,
      "изключване": 8250,
      "descri": 8251,
      "guaranteed": 8252,
      "военни": 8253,
      "бежанци": 8254,
      "penalty": 8255,
      "направено": 8256,
      "приспособяване": 8257,
      "изказване": 8258,
      "Another": 8259,
      "Are": 8260,
      "hop": 8261,
      "ат": 8262,
      "бру": 8263,
      "топ": 8264,
      "чето": 8265,
      "преми": 8266,
      "пречки": 8267,
      "обро": 8268,
      "предвиде": 8269,
      "abs": 8270,
      "fect": 8271,
      "performance": 8272,
      "създадат": 8273,
      "мул": 8274,
      "настоява": 8275,
      "solve": 8276,
      "purposes": 8277,
      "заеме": 8278,
      "агенции": 8279,
      "meaning": 8280,
      "проучва": 8281,
      "repeated": 8282,
      "авио": 8283,
      "Monetary": 8284,
      "Yes": 8285,
      "dig": 8286,
      "hy": 8287,
      "взи": 8288,
      "напа": 8289,
      "дам": 8290,
      "arri": 8291,
      "beha": 8292,
      "дикта": 8293,
      "sem": 8294,
      "mod": 8295,
      "спорт": 8296,
      "плана": 8297,
      "strugg": 8298,
      "народа": 8299,
      "laid": 8300,
      "compar": 8301,
      "очаро": 8302,
      "Funds": 8303,
      "Financial": 8304,
      "destro": 8305,
      "Корея": 8306,
      "From": 8307,
      "OS": 8308,
      "ots": 8309,
      "вакси": 8310,
      "told": 8311,
      "предви": 8312,
      "следващия": 8313,
      "тяването": 8314,
      "Дори": 8315,
      "свърши": 8316,
      "Struct": 8317,
      "осъществи": 8318,
      "история": 8319,
      "положителни": 8320,
      "advert": 8321,
      "книга": 8322,
      "housing": 8323,
      "мле": 8324,
      "anian": 8325,
      "забележ": 8326,
      "разру": 8327,
      "sibly": 8328,
      "енергията": 8329,
      "stitution": 8330,
      "решени": 8331,
      "малка": 8332,
      "defined": 8333,
      "property": 8334,
      "събитията": 8335,
      "стратегии": 8336,
      "играят": 8337,
      "повтаря": 8338,
      "accepted": 8339,
      "облига": 8340,
      "Бя": 8341,
      "тва": 8342,
      "ниско": 8343,
      "lea": 8344,
      "общото": 8345,
      "обслуж": 8346,
      "изобщо": 8347,
      "tele": 8348,
      "exemp": 8349,
      "правителствени": 8350,
      "преодоляване": 8351,
      "унгарското": 8352,
      "оратора": 8353,
      "experts": 8354,
      "променя": 8355,
      "територията": 8356,
      "labelling": 8357,
      "характеристи": 8358,
      "gment": 8359,
      "вката": 8360,
      "спра": 8361,
      "шия": 8362,
      "реци": 8363,
      "posing": 8364,
      "Under": 8365,
      "thorough": 8366,
      "кедо": 8367,
      "written": 8368,
      "благодарност": 8369,
      "докладчиците": 8370,
      "разполагат": 8371,
      "Трето": 8372,
      "micro": 8373,
      "корупцията": 8374,
      "Korea": 8375,
      "Grow": 8376,
      "hom": 8377,
      "sla": 8378,
      "Брази": 8379,
      "Гн": 8380,
      "пте": 8381,
      "tot": 8382,
      "assure": 8383,
      "изяс": 8384,
      "разочаро": 8385,
      "градове": 8386,
      "Those": 8387,
      "coal": 8388,
      "създават": 8389,
      "planned": 8390,
      "Proced": 8391,
      "equally": 8392,
      "засягат": 8393,
      "statistics": 8394,
      "Обаче": 8395,
      "Газа": 8396,
      "io": 8397,
      "АКТ": 8398,
      "справи": 8399,
      "уре": 8400,
      "продаж": 8401,
      "idents": 8402,
      "говоря": 8403,
      "сянка": 8404,
      "contact": 8405,
      "вноса": 8406,
      "affairs": 8407,
      "собствена": 8408,
      "бюджетните": 8409,
      "греси": 8410,
      "Мер": 8411,
      "декларация": 8412,
      "кориги": 8413,
      "earlier": 8414,
      "dignity": 8415,
      "Structural": 8416,
      "АКТБ": 8417,
      "правната": 8418,
      "членство": 8419,
      "правилната": 8420,
      "fication": 8421,
      "реалисти": 8422,
      "намерят": 8423,
      "contributions": 8424,
      "resulting": 8425,
      "приветстваме": 8426,
      "passed": 8427,
      "хуманитарна": 8428,
      "изграждане": 8429,
      "разработването": 8430,
      "Thirdly": 8431,
      "прекомер": 8432,
      "Arab": 8433,
      "gor": 8434,
      "impose": 8435,
      "тур": 8436,
      "субе": 8437,
      "важното": 8438,
      "likely": 8439,
      "мяната": 8440,
      "anyone": 8441,
      "centre": 8442,
      "condition": 8443,
      "осигуряването": 8444,
      "противен": 8445,
      "committees": 8446,
      "initial": 8447,
      "броят": 8448,
      "третиране": 8449,
      "targeted": 8450,
      "въглероден": 8451,
      "неотдавна": 8452,
      "данъкоплатците": 8453,
      "Gaza": 8454,
      "пропорциона": 8455,
      "300": 8456,
      "Rules": 8457,
      "комите": 8458,
      "imper": 8459,
      "среди": 8460,
      "годишно": 8461,
      "днешното": 8462,
      "dealt": 8463,
      "Центра": 8464,
      ".)": 8465,
      "King": 8466,
      "dy": 8467,
      "vacc": 8468,
      "впечат": 8469,
      "еки": 8470,
      "сните": 8471,
      "бен": 8472,
      "viour": 8473,
      "възможни": 8474,
      "бяхме": 8475,
      "processes": 8476,
      "доставките": 8477,
      "гръц": 8478,
      "оборудване": 8479,
      "delighted": 8480,
      "ДС": 8481,
      "пция": 8482,
      "вест": 8483,
      "приключ": 8484,
      "придоби": 8485,
      "телния": 8486,
      "works": 8487,
      "formation": 8488,
      "пътува": 8489,
      "позиции": 8490,
      "устойчивото": 8491,
      "finding": 8492,
      "focused": 8493,
      "обяви": 8494,
      "стреме": 8495,
      "медицин": 8496,
      "злоупотре": 8497,
      "възобновяеми": 8498,
      "нарко": 8499,
      "forthcoming": 8500,
      "Italian": 8501,
      "Growth": 8502,
      "Бразилия": 8503,
      "Су": 8504,
      "concil": 8505,
      "chain": 8506,
      "нататък": 8507,
      "първите": 8508,
      "позволят": 8509,
      "инвестиционна": 8510,
      "carefully": 8511,
      "подходяща": 8512,
      "guaranteeing": 8513,
      "субсидиа": 8514,
      "announced": 8515,
      "прецеден": 8516,
      "Хартата": 8517,
      "Ice": 8518,
      "MF": 8519,
      "TO": 8520,
      "нала": 8521,
      "asp": 8522,
      "баро": 8523,
      "икономии": 8524,
      "казаха": 8525,
      "monetary": 8526,
      "спазване": 8527,
      "Можем": 8528,
      "precedent": 8529,
      "nal": 8530,
      "жност": 8531,
      "рон": 8532,
      "вената": 8533,
      "патен": 8534,
      "impossible": 8535,
      "clusive": 8536,
      "срещи": 8537,
      "конкретен": 8538,
      "намерения": 8539,
      "playing": 8540,
      "признава": 8541,
      "Commun": 8542,
      "нейната": 8543,
      "actively": 8544,
      "историята": 8545,
      "убий": 8546,
      "FT": 8547,
      "VAT": 8548,
      "силите": 8549,
      "ilt": 8550,
      "изгра": 8551,
      "нявам": 8552,
      "productive": 8553,
      "настоящите": 8554,
      "loyment": 8555,
      "ограничаване": 8556,
      "автомобили": 8557,
      "списък": 8558,
      "очакват": 8559,
      "малцинствата": 8560,
      "truth": 8561,
      "бежанците": 8562,
      "reliable": 8563,
      "Регламент": 8564,
      "Globalisation": 8565,
      "съвмести": 8566,
      "Plan": 8567,
      "Ti": 8568,
      "smo": 8569,
      "СС": 8570,
      "справят": 8571,
      "поколе": 8572,
      "лизирането": 8573,
      "ilities": 8574,
      "изчер": 8575,
      "unanim": 8576,
      "iff": 8577,
      "Понастоящем": 8578,
      "същество": 8579,
      "водите": 8580,
      "останат": 8581,
      "desire": 8582,
      "документа": 8583,
      "Всичко": 8584,
      "обучението": 8585,
      "монитори": 8586,
      "успяхме": 8587,
      "primarily": 8588,
      "бизнес": 8589,
      "предварително": 8590,
      "Turkish": 8591,
      "Финан": 8592,
      "prosperity": 8593,
      "spread": 8594,
      "attra": 8595,
      "отче": 8596,
      "arrange": 8597,
      "вения": 8598,
      "whilst": 8599,
      "comment": 8600,
      "ama": 8601,
      "дух": 8602,
      "clause": 8603,
      "произтича": 8604,
      "обсъдим": 8605,
      "played": 8606,
      "предлагат": 8607,
      "earth": 8608,
      "peaceful": 8609,
      "изпрати": 8610,
      "neighbouring": 8611,
      "грешки": 8612,
      "прекратяване": 8613,
      "speculation": 8614,
      "concluded": 8615,
      "subsidiarity": 8616,
      "behaviour": 8617,
      "ДДС": 8618,
      "сли": 8619,
      "физи": 8620,
      "трин": 8621,
      "substances": 8622,
      "honest": 8623,
      "technological": 8624,
      "expert": 8625,
      "experiencing": 8626,
      "Iceland": 8627,
      "35": 8628,
      "WTO": 8629,
      "rul": 8630,
      "оди": 8631,
      "кор": 8632,
      "iction": 8633,
      "горите": 8634,
      "главно": 8635,
      "Пакта": 8636,
      "intentions": 8637,
      "всеобхват": 8638,
      "времена": 8639,
      "Литва": 8640,
      "Македо": 8641,
      "cuts": 8642,
      "дреб": 8643,
      "липсва": 8644,
      "могъл": 8645,
      "untary": 8646,
      "терористи": 8647,
      "Директива": 8648,
      "Призовавам": 8649,
      "wonder": 8650,
      "Tibet": 8651,
      "kers": 8652,
      "wit": 8653,
      "вчера": 8654,
      "йца": 8655,
      "праз": 8656,
      "насам": 8657,
      "теку": 8658,
      "визи": 8659,
      "wealth": 8660,
      "споро": 8661,
      "надзо": 8662,
      "намалява": 8663,
      "демократичните": 8664,
      "изразява": 8665,
      "discrimin": 8666,
      "emerging": 8667,
      "поведение": 8668,
      "demonstrated": 8669,
      "експерт": 8670,
      "ним": 8671,
      "септе": 8672,
      "вери": 8673,
      "ляваме": 8674,
      "tedly": 8675,
      "реално": 8676,
      "законодателна": 8677,
      "каквото": 8678,
      "entirely": 8679,
      "укрепването": 8680,
      "природни": 8681,
      "рискове": 8682,
      "Lithuania": 8683,
      "непрекъснато": 8684,
      "Чешката": 8685,
      "totally": 8686,
      "Kingdom": 8687,
      "Македония": 8688,
      "септември": 8689,
      "Ira": 8690,
      "nations": 8691,
      "сгра": 8692,
      "усъвършен": 8693,
      "преразгледа": 8694,
      "съзна": 8695,
      "mental": 8696,
      "хуман": 8697,
      "minutes": 8698,
      "обществено": 8699,
      "representative": 8700,
      "устойчива": 8701,
      "признаем": 8702,
      "existence": 8703,
      "гражданска": 8704,
      "expectations": 8705,
      "млади": 8706,
      "носят": 8707,
      "симво": 8708,
      "candidate": 8709,
      "индустри": 8710,
      "предупре": 8711,
      "Iraq": 8712,
      "Maced": 8713,
      "Other": 8714,
      "нтите": 8715,
      "онова": 8716,
      "incorpor": 8717,
      "ats": 8718,
      "нор": 8719,
      "arma": 8720,
      "entit": 8721,
      "sea": 8722,
      "register": 8723,
      "trial": 8724,
      "Instead": 8725,
      "добрата": 8726,
      "шан": 8727,
      "proposing": 8728,
      "техния": 8729,
      "qualities": 8730,
      "definition": 8731,
      "тежко": 8732,
      "средносро": 8733,
      "obstacles": 8734,
      "infring": 8735,
      "диоксид": 8736,
      "Asi": 8737,
      "uly": 8738,
      "тност": 8739,
      "родите": 8740,
      "личните": 8741,
      "seven": 8742,
      "припомня": 8743,
      "ряваме": 8744,
      "verse": 8745,
      "explan": 8746,
      "бъдещата": 8747,
      "diseas": 8748,
      "operational": 8749,
      "iannual": 8750,
      "century": 8751,
      "успеем": 8752,
      "accident": 8753,
      "спазва": 8754,
      "extended": 8755,
      "състав": 8756,
      "острови": 8757,
      "демонстри": 8758,
      "declaration": 8759,
      "изтъкна": 8760,
      "lam": 8761,
      "lap": 8762,
      "nation": 8763,
      "име": 8764,
      "ests": 8765,
      "ofin": 8766,
      "лет": 8767,
      "assu": 8768,
      "Thus": 8769,
      "presence": 8770,
      "sym": 8771,
      "politics": 8772,
      "compared": 8773,
      "decades": 8774,
      "medical": 8775,
      "реакция": 8776,
      "получава": 8777,
      "първото": 8778,
      "вътрешните": 8779,
      "purch": 8780,
      "призив": 8781,
      "criticism": 8782,
      "stakeholders": 8783,
      "компании": 8784,
      "Palestinian": 8785,
      "радвам": 8786,
      "diseases": 8787,
      "асо": 8788,
      "зните": 8789,
      "хране": 8790,
      "reci": 8791,
      "несат": 8792,
      "силни": 8793,
      "телната": 8794,
      "дум": 8795,
      "слуш": 8796,
      "operators": 8797,
      "Lastly": 8798,
      "diplomatic": 8799,
      "шведското": 8800,
      "CE": 8801,
      "Sep": 8802,
      "tember": 8803,
      "удъл": 8804,
      "даден": 8805,
      "водне": 8806,
      "състои": 8807,
      "протек": 8808,
      "illance": 8809,
      "actual": 8810,
      "worry": 8811,
      "prus": 8812,
      "свободен": 8813,
      "необходимото": 8814,
      "examples": 8815,
      "всякъде": 8816,
      "отдале": 8817,
      "neighbours": 8818,
      "continued": 8819,
      "biggest": 8820,
      "ръководители": 8821,
      "Cyprus": 8822,
      "DA": 8823,
      "Ав": 8824,
      "Едно": 8825,
      "джа": 8826,
      "летия": 8827,
      "вината": 8828,
      "съществени": 8829,
      "парламенти": 8830,
      "съгласна": 8831,
      "personally": 8832,
      "governmental": 8833,
      "аргу": 8834,
      "нейното": 8835,
      "applying": 8836,
      "demonstrate": 8837,
      "simplification": 8838,
      "умения": 8839,
      "types": 8840,
      "average": 8841,
      "заявле": 8842,
      "волю": 8843,
      "гане": 8844,
      "бет": 8845,
      "гледне": 8846,
      "намалят": 8847,
      "обществеността": 8848,
      "hands": 8849,
      "topic": 8850,
      "селскостопанските": 8851,
      "отдавна": 8852,
      "Health": 8853,
      "September": 8854,
      "West": 8855,
      "city": 8856,
      "front": 8857,
      "pan": 8858,
      "вз": 8859,
      "зале": 8860,
      "непри": 8861,
      "ром": 8862,
      "секре": 8863,
      "lying": 8864,
      "бъда": 8865,
      "save": 8866,
      "разискваме": 8867,
      "инструментите": 8868,
      "извърши": 8869,
      "намират": 8870,
      "treated": 8871,
      "religion": 8872,
      "реагира": 8873,
      "surveillance": 8874,
      "наследство": 8875,
      "employees": 8876,
      "Gu": 8877,
      "Per": 8878,
      "cate": 8879,
      "drug": 8880,
      "zer": 8881,
      "Хо": 8882,
      "online": 8883,
      "гати": 8884,
      "предприе": 8885,
      "raw": 8886,
      "exclusive": 8887,
      "Commissioners": 8888,
      "знак": 8889,
      "Съда": 8890,
      "трафик": 8891,
      "taxation": 8892,
      "виждаме": 8893,
      "Islam": 8894,
      "заключенията": 8895,
      "разбирам": 8896,
      "отбележи": 8897,
      "American": 8898,
      "конференция": 8899,
      "акцент": 8900,
      "решително": 8901,
      "Средиземноморието": 8902,
      "Procedure": 8903,
      "Аген": 8904,
      "гната": 8905,
      "наши": 8906,
      "даването": 8907,
      "попитам": 8908,
      "изби": 8909,
      "haz": 8910,
      "ulated": 8911,
      "другото": 8912,
      "perfect": 8913,
      "сяка": 8914,
      "seeing": 8915,
      "democrat": 8916,
      "дейностите": 8917,
      "решим": 8918,
      "обезще": 8919,
      "referred": 8920,
      "лекарства": 8921,
      "adapt": 8922,
      "sovereignty": 8923,
      "scheme": 8924,
      "популя": 8925,
      "сурови": 8926,
      "symbol": 8927,
      "During": 8928,
      "Qu": 8929,
      "Очак": 8930,
      "Счита": 8931,
      "orse": 8932,
      "дението": 8933,
      "сил": 8934,
      "договаря": 8935,
      "withdraw": 8936,
      "страдат": 8937,
      "действат": 8938,
      "защити": 8939,
      "бюджетът": 8940,
      "случаят": 8941,
      "pensions": 8942,
      "увеличаването": 8943,
      "globalisation": 8944,
      "involves": 8945,
      "suffered": 8946,
      "traditional": 8947,
      "clarify": 8948,
      "rupt": 8949,
      "clean": 8950,
      "сферата": 8951,
      "асоции": 8952,
      "IC": 8953,
      "gone": 8954,
      "orest": 8955,
      "дръ": 8956,
      "rem": 8957,
      "room": 8958,
      "resto": 8959,
      "rad": 8960,
      "граница": 8961,
      "ifications": 8962,
      "изигра": 8963,
      "поставени": 8964,
      "extension": 8965,
      "Лисабонската": 8966,
      "taxes": 8967,
      "Solid": 8968,
      "съдържанието": 8969,
      "годишна": 8970,
      "Cooperation": 8971,
      "rejected": 8972,
      "заболявания": 8973,
      "Agr": 8974,
      "Stock": 8975,
      "реформата": 8976,
      "лените": 8977,
      "grate": 8978,
      "198": 8979,
      "phen": 8980,
      "затворни": 8981,
      "съобщение": 8982,
      "friendly": 8983,
      "Safe": 8984,
      "sembly": 8985,
      "Agricult": 8986,
      "EE": 8987,
      "тла": 8988,
      "тят": 8989,
      "onom": 8990,
      "toler": 8991,
      "месо": 8992,
      "изб": 8993,
      "tered": 8994,
      "подобрения": 8995,
      "включване": 8996,
      "реалност": 8997,
      "facilities": 8998,
      "Пробле": 8999,
      "contracts": 9000,
      "electronic": 9001,
      "material": 9002,
      "декларации": 9003,
      "изключение": 9004,
      "валута": 9005,
      "separate": 9006,
      "проверки": 9007,
      "десетилетия": 9008,
      "привлека": 9009,
      "контакт": 9010,
      "Cub": 9011,
      "inese": 9012,
      "почи": 9013,
      "дет": 9014,
      "sures": 9015,
      "meant": 9016,
      "къвто": 9017,
      "консерва": 9018,
      "balances": 9019,
      "резолюции": 9020,
      "устойчивост": 9021,
      "waiting": 9022,
      "contract": 9023,
      "нуждите": 9024,
      "търсенето": 9025,
      "Adjustment": 9026,
      "texts": 9027,
      "Macedonia": 9028,
      "Free": 9029,
      "tend": 9030,
      "ВД": 9031,
      "вра": 9032,
      "гобро": 9033,
      "мля": 9034,
      "заеми": 9035,
      "седем": 9036,
      "Chinese": 9037,
      "ангажимента": 9038,
      "applications": 9039,
      "потвърди": 9040,
      "detailed": 9041,
      "determined": 9042,
      "болестта": 9043,
      "компетентност": 9044,
      "Solidarity": 9045,
      "Head": 9046,
      "Women": 9047,
      "cities": 9048,
      "replace": 9049,
      "поро": 9050,
      "какъвто": 9051,
      "comed": 9052,
      "ктика": 9053,
      "coast": 9054,
      "убеден": 9055,
      "уважение": 9056,
      "препоръките": 9057,
      "felt": 9058,
      "осъзна": 9059,
      "normal": 9060,
      "duties": 9061,
      "enhanced": 9062,
      "Балкани": 9063,
      "уязвимите": 9064,
      "holm": 9065,
      "compensation": 9066,
      "герман": 9067,
      "Stockholm": 9068,
      "phenomen": 9069,
      "sk": 9070,
      "recession": 9071,
      "ene": 9072,
      "arrest": 9073,
      "съвремен": 9074,
      "обедине": 9075,
      "придържа": 9076,
      "логия": 9077,
      "pol": 9078,
      "хопла": 9079,
      "разискванията": 9080,
      "позволете": 9081,
      "welcomed": 9082,
      "гласувахме": 9083,
      "данъчните": 9084,
      "министрите": 9085,
      "опасения": 9086,
      "aviation": 9087,
      "наводне": 9088,
      "retain": 9089,
      "weap": 9090,
      "предмет": 9091,
      "acking": 9092,
      "ishing": 9093,
      "смело": 9094,
      "развитите": 9095,
      "believ": 9096,
      "високите": 9097,
      "колега": 9098,
      "negotiated": 9099,
      "метод": 9100,
      "световна": 9101,
      "airlines": 9102,
      "стремим": 9103,
      "запазим": 9104,
      "помним": 9105,
      "единоду": 9106,
      "Нужда": 9107,
      "milk": 9108,
      "федера": 9109,
      "Централна": 9110,
      "July": 9111,
      "mid": 9112,
      "идва": 9113,
      "напре": 9114,
      "alle": 9115,
      "дено": 9116,
      "лов": 9117,
      "ulating": 9118,
      "claim": 9119,
      "ЕСВД": 9120,
      "нямаме": 9121,
      "здраво": 9122,
      "посоча": 9123,
      "постигнахме": 9124,
      "built": 9125,
      "studies": 9126,
      "languages": 9127,
      "блоки": 9128,
      "coherent": 9129,
      "чешкото": 9130,
      "урнали": 9131,
      "Западните": 9132,
      "цифро": 9133,
      "usu": 9134,
      "итали": 9135,
      "опти": 9136,
      "itage": 9137,
      "многобро": 9138,
      "Със": 9139,
      "усво": 9140,
      "смек": 9141,
      "процесът": 9142,
      "причината": 9143,
      "изпълните": 9144,
      "проекто": 9145,
      "surv": 9146,
      "generation": 9147,
      "служби": 9148,
      "енергетика": 9149,
      "рейтинг": 9150,
      "temporary": 9151,
      "сделки": 9152,
      "none": 9153,
      "slow": 9154,
      "Ро": 9155,
      "Сток": 9156,
      "юли": 9157,
      "insurance": 9158,
      "постепенно": 9159,
      "нео": 9160,
      "отпус": 9161,
      "ведна": 9162,
      "холм": 9163,
      "uster": 9164,
      "please": 9165,
      "казаното": 9166,
      "ctors": 9167,
      "изпълняват": 9168,
      "собствената": 9169,
      "airy": 9170,
      "maintaining": 9171,
      "requested": 9172,
      "Знаем": 9173,
      "enhance": 9174,
      "designed": 9175,
      "latest": 9176,
      "предназначени": 9177,
      "Стокхолм": 9178,
      "веднага": 9179,
      "Im": 9180,
      "New": 9181,
      "ded": 9182,
      "gic": 9183,
      "jan": 9184,
      "Ниде": 9185,
      "йто": 9186,
      "погледне": 9187,
      "confirm": 9188,
      "loans": 9189,
      "posal": 9190,
      "core": 9191,
      "центъра": 9192,
      "факти": 9193,
      "намалим": 9194,
      "bonds": 9195,
      "наличието": 9196,
      "транспорта": 9197,
      "голямото": 9198,
      "Stras": 9199,
      "диалога": 9200,
      "известни": 9201,
      "въздухопла": 9202,
      "официално": 9203,
[...]
